<pad>	0
<unk>	0
<s>	0
</s>	0
▁,	-3.2285
▁.	-3.32715
s	-3.74292
▁the	-4.0119
;	-4.20327
▁&	-4.20369
▁and	-4.49401
▁to	-4.60298
▁và	-4.6257
▁a	-4.68327
apos	-4.68784
▁tôi	-4.69886
▁of	-4.77037
▁là	-4.79345
▁	-4.82564
y	-4.83153
▁một	-4.92465
▁có	-4.93975
▁that	-4.97354
▁i	-5.01748
▁chúng	-5.04889
▁in	-5.09833
▁it	-5.15154
▁những	-5.18696
quot	-5.21728
ing	-5.23872
▁you	-5.24037
▁của	-5.26776
▁we	-5.29309
ed	-5.33458
i	-5.35414
▁is	-5.35477
▁không	-5.38438
▁ta	-5.38879
t	-5.40627
n	-5.44516
▁đó	-5.4467
▁bạn	-5.45945
▁người	-5.55374
▁thi	-5.57954
▁trong	-5.59817
▁thể	-5.68283
▁các	-5.68591
▁?	-5.7148
▁be	-5.71828
▁này	-5.72205
d	-5.73128
▁đã	-5.73281
▁được	-5.76053
▁so	-5.79123
▁nó	-5.828
▁với	-5.82987
ly	-5.8326
▁cho	-5.86507
▁ra	-5.87119
▁sự	-5.89498
▁--	-5.90066
▁làm	-5.9611
m	-5.96196
▁ở	-6.014
▁was	-6.04504
ng	-6.04805
▁để	-6.0581
▁điều	-6.05884
▁for	-6.05885
▁mà	-6.06329
▁như	-6.08091
▁về	-6.09515
▁sẽ	-6.11101
▁thế	-6.13183
▁r	-6.14029
-	-6.14344
▁họ	-6.14945
▁with	-6.16284
▁khi	-6.16808
▁are	-6.18263
▁what	-6.19741
▁have	-6.20201
▁:	-6.2022
▁but	-6.23423
ất	-6.23503
▁on	-6.25214
▁do	-6.25847
▁can	-6.29819
▁đây	-6.31173
▁nói	-6.32869
▁nhưng	-6.34152
a	-6.37357
re	-6.38604
▁đến	-6.39263
▁phải	-6.41711
▁about	-6.4537
▁vào	-6.45871
▁vì	-6.46272
▁từ	-6.4729
▁việc	-6.47321
▁rằng	-6.47873
▁gì	-6.48514
▁đang	-6.48901
▁there	-6.49183
▁go	-6.51971
▁lại	-6.52326
▁thấy	-6.53482
▁cách	-6.54053
▁all	-6.54724
▁cả	-6.55735
▁hơn	-6.5623
▁nhiều	-6.56896
▁con	-6.57552
▁thực	-6.57671
▁at	-6.57687
▁not	-6.57731
▁an	-6.57819
▁my	-6.59274
▁b	-6.5934
c	-6.60097
▁t	-6.61785
▁đầu	-6.62042
▁one	-6.62827
▁as	-6.66925
▁cái	-6.67286
▁people	-6.67566
▁like	-6.6825
▁học	-6.68471
▁công	-6.68771
▁trên	-6.69739
▁khác	-6.69834
▁chỉ	-6.70484
▁vậy	-6.71376
o	-6.71764
▁nào	-6.73637
▁he	-6.75256
▁from	-6.75263
▁if	-6.75361
▁biết	-6.76132
▁năm	-6.78671
▁đi	-6.78969
▁thứ	-6.7956
▁our	-6.8017
e	-6.80493
▁now	-6.81178
▁nghĩ	-6.83942
▁nếu	-6.84506
▁thành	-6.85994
▁nhà	-6.87466
▁these	-6.87521
▁cũng	-6.88495
▁just	-6.88606
▁when	-6.89176
▁me	-6.89271
▁or	-6.90579
▁số	-6.93333
▁us	-6.94113
cause	-6.94891
ve	-6.95038
▁bị	-6.95592
▁how	-6.95692
▁quan	-6.95699
▁nên	-6.96749
▁muốn	-6.98027
▁1	-6.99227
▁out	-6.99614
▁anh	-7.00046
▁mình	-7.01339
▁know	-7.0149
▁tại	-7.01548
▁chính	-7.01706
▁them	-7.02158
▁nhất	-7.02608
▁tạo	-7.03942
▁giờ	-7.04132
▁up	-7.04706
▁động	-7.04942
▁by	-7.05342
u	-7.05546
▁giới	-7.06096
p	-7.06441
▁ông	-7.07623
en	-7.08005
▁mọ	-7.08113
▁more	-7.08444
▁see	-7.0878
▁hiện	-7.09636
very	-7.10072
▁some	-7.10134
▁bởi	-7.10392
▁tất	-7.12262
▁year	-7.12645
▁hình	-7.13036
▁who	-7.13212
▁get	-7.1446
▁your	-7.1448
▁think	-7.14762
▁had	-7.15037
▁would	-7.15222
.	-7.15794
▁cảm	-7.16171
▁hay	-7.17049
▁sau	-7.17084
▁sống	-7.17871
er	-7.18286
▁cuộc	-7.18786
▁nhận	-7.1888
▁look	-7.19582
▁their	-7.1982
▁were	-7.19823
▁thật	-7.19935
▁which	-7.2003
▁ý	-7.20465
▁cần	-7.21121
▁còn	-7.22127
▁tự	-7.2226
▁thì	-7.22377
▁here	-7.22378
▁want	-7.24255
▁đề	-7.24478
▁theo	-7.27395
▁câu	-7.27616
▁bắt	-7.27905
▁nhìn	-7.27968
▁tin	-7.28476
es	-7.28504
▁cơ	-7.2858
▁tới	-7.28814
▁ấy	-7.28913
▁bằng	-7.29095
▁world	-7.29363
▁cùng	-7.30252
▁lớn	-7.30746
▁bản	-7.31288
▁ngày	-7.31914
▁qua	-7.32082
▁bộ	-7.32559
▁tế	-7.33391
▁gia	-7.33407
▁sao	-7.34281
▁thời	-7.34849
▁dụng	-7.34897
▁time	-7.34903
▁actual	-7.353
▁lên	-7.35642
▁chuyện	-7.36317
▁trước	-7.36706
▁other	-7.36955
▁nhân	-7.37097
▁trở	-7.37808
▁has	-7.38363
▁sinh	-7.38432
▁sai	-7.38601
▁don	-7.38881
▁reall	-7.39065
▁no	-7.3929
▁then	-7.40665
▁way	-7.41053
▁phần	-7.41497
▁nước	-7.41858
▁ch	-7.427
▁năng	-7.428
▁phát	-7.43296
▁could	-7.43797
▁thay	-7.43844
▁vấn	-7.43846
h	-7.44016
▁toàn	-7.44111
▁into	-7.44544
▁đổi	-7.44887
▁did	-7.45275
▁thông	-7.45554
▁nơi	-7.46104
▁tìm	-7.4841
▁will	-7.48418
▁mới	-7.48648
▁nhau	-7.48903
▁trường	-7.49212
▁where	-7.49572
▁hệ	-7.49823
▁định	-7.49935
r	-7.50213
▁độ	-7.51275
▁nhiên	-7.51326
▁things	-7.51567
▁well	-7.5164
▁sử	-7.51711
▁cô	-7.52196
▁kết	-7.5257
▁tính	-7.5269
▁make	-7.5293
▁tốt	-7.53093
▁every	-7.53166
▁tưởng	-7.53816
nh	-7.54016
▁she	-7.54152
▁lý	-7.54357
▁say	-7.54792
▁trình	-7.54825
▁new	-7.5484
▁rồi	-7.55284
▁hàng	-7.5575
▁vật	-7.56115
l	-7.56786
▁s	-7.56949
▁m	-7.57539
▁c	-7.58139
▁hỏi	-7.5881
▁hã	-7.58908
▁th	-7.58946
▁liệu	-7.5921
▁máy	-7.59538
▁mặt	-7.60562
▁right	-7.61367
▁ảnh	-7.6179
▁hợp	-7.62316
▁tiếp	-7.62908
▁take	-7.63453
ll	-7.63719
▁kinh	-7.64045
▁start	-7.64217
▁n	-7.64524
▁two	-7.64656
al	-7.64873
▁hành	-7.65227
▁work	-7.65654
▁hội	-7.65795
▁first	-7.66072
▁hoá	-7.66164
▁nữa	-7.66308
▁hai	-7.66534
▁than	-7.66655
▁thiết	-7.66686
▁gian	-7.67457
▁xem	-7.67687
▁something	-7.6852
▁thức	-7.68658
▁vị	-7.68843
▁ai	-7.69615
▁trung	-7.69738
▁thích	-7.69919
▁trọng	-7.70548
hose	-7.70636
▁need	-7.71354
▁đồng	-7.71548
▁giải	-7.72204
lso	-7.72485
▁much	-7.72588
▁over	-7.72998
▁trẻ	-7.73114
▁đối	-7.74078
▁lượng	-7.75008
▁call	-7.75148
▁thường	-7.76082
▁quá	-7.76309
▁giống	-7.77234
▁lần	-7.77786
▁đều	-7.77997
▁l	-7.78205
▁tiên	-7.78439
▁loại	-7.78647
▁life	-7.78884
▁back	-7.79057
▁come	-7.79212
▁talk	-7.79285
▁most	-7.79605
▁quả	-7.7973
▁sáng	-7.79905
▁bao	-7.80325
▁tr	-7.80495
g	-7.81131
▁got	-7.81376
▁nay	-7.81392
▁hiểu	-7.81437
▁lot	-7.81582
▁tâm	-7.8166
▁thing	-7.81698
▁his	-7.81894
▁bệnh	-7.82468
▁kind	-7.82527
▁even	-7.82719
▁little	-7.83666
▁cứu	-7.83941
▁thống	-7.83995
▁nghệ	-7.84032
▁điểm	-7.85396
▁mô	-7.86063
▁viên	-7.86374
▁nghĩa	-7.86507
in	-7.86982
▁đại	-7.87764
▁show	-7.87961
▁chiế	-7.88055
▁gọi	-7.88527
▁em	-7.88775
▁hoàn	-7.88893
▁nhỏ	-7.89336
▁only	-7.89618
▁quốc	-7.90035
▁many	-7.90428
▁hoặc	-7.90893
▁lúc	-7.91526
▁đưa	-7.91646
▁mỗi	-7.92037
▁any	-7.92267
▁đường	-7.92359
▁tác	-7.92472
▁vẫ	-7.92475
▁why	-7.92475
▁good	-7.92654
▁khoả	-7.92952
▁nghiệm	-7.93638
▁bâ	-7.93966
▁xả	-7.94111
ies	-7.94114
▁dự	-7.94334
▁;	-7.94483
▁giá	-7.94733
tương	-7.94865
▁bên	-7.95144
▁her	-7.95332
▁cố	-7.95504
▁ba	-7.95586
▁di	-7.96081
▁cá	-7.965
▁dân	-7.96811
▁k	-7.96986
▁does	-7.97184
▁different	-7.9721
▁đ	-7.97556
▁dùng	-7.98102
▁thuật	-7.9817
▁change	-7.98639
▁g	-7.99139
ắc	-7.99566
▁biệt	-7.99614
▁use	-7.99955
▁đất	-8.00124
around	-8.00482
▁nghe	-8.00687
▁chuyển	-8.01351
▁từng	-8.01369
▁diễn	-8.01489
▁10	-8.01514
▁tuyệt	-8.01743
▁through	-8.01786
▁thu	-8.0182
▁triển	-8.01828
▁đúng	-8.02223
▁cao	-8.02803
▁quyết	-8.02943
▁ăn	-8.03131
k	-8.03361
ch	-8.03558
▁let	-8.03848
▁trị	-8.03871
▁giáo	-8.0395
▁d	-8.04133
▁phụ	-8.04494
▁khá	-8.04669
day	-8.05227
▁liên	-8.05529
▁kế	-8.05955
▁chất	-8.05983
▁cầu	-8.05998
▁lực	-8.07783
▁mean	-8.08149
▁lời	-8.08638
▁bảo	-8.08854
▁vi	-8.09691
▁give	-8.09697
▁down	-8.09785
▁2	-8.10228
▁tiến	-8.10376
▁nghiên	-8.10746
▁ơn	-8.10943
▁khả	-8.11137
▁phòng	-8.11375
▁chưa	-8.11674
▁ngay	-8.11817
▁nữ	-8.11832
▁xe	-8.12
▁hết	-8.12733
▁giúp	-8.12733
on	-8.12764
▁tình	-8.13124
▁khoa	-8.13509
▁day	-8.13717
▁same	-8.13724
▁being	-8.13807
▁đơn	-8.1401
▁xuất	-8.1415
▁bình	-8.15154
▁phương	-8.1521
▁điện	-8.15354
▁não	-8.15457
▁mang	-8.15625
▁phân	-8.15667
▁great	-8.16116
▁tranh	-8.16236
▁tiếng	-8.16272
▁truyền	-8.16615
▁bài	-8.16734
▁tuổi	-8.1704
▁tập	-8.17146
one	-8.17293
▁kỳ	-8.1738
▁three	-8.17395
▁sản	-8.17737
▁real	-8.18057
▁cuối	-8.18252
▁đặt	-8.18717
▁try	-8.18735
▁human	-8.18869
▁tell	-8.19082
▁tiền	-8.19149
▁tượng	-8.19461
▁biến	-8.19485
▁put	-8.1958
▁pháp	-8.19824
▁3	-8.20755
▁gần	-8.20764
▁giữa	-8.21115
▁trả	-8.21995
ion	-8.22064
▁yêu	-8.22148
▁w	-8.22405
▁lấy	-8.22574
▁thú	-8.22662
▁part	-8.23347
▁chiến	-8.23883
▁thank	-8.24364
▁bỏ	-8.24542
▁doing	-8.24567
▁trí	-8.24977
▁cứ	-8.25536
▁hoạt	-8.25923
▁chủ	-8.26185
▁20	-8.26675
▁xâ	-8.269
▁xã	-8.27037
▁bà	-8.27522
▁đáng	-8.27734
▁sách	-8.28
▁mỹ	-8.28682
▁kể	-8.28741
▁own	-8.28912
▁may	-8.29141
▁khó	-8.29168
▁phẩm	-8.29375
▁child	-8.30191
▁hiệu	-8.30238
▁dụ	-8.3028
▁sức	-8.30414
▁chơi	-8.30554
▁bức	-8.30999
▁percent	-8.31068
▁fact	-8.31215
▁đồ	-8.31407
▁v	-8.31407
able	-8.31493
▁thân	-8.31625
▁chí	-8.31761
▁mất	-8.31901
▁after	-8.32058
▁made	-8.32109
▁đời	-8.32178
b	-8.3221
le	-8.3237
▁đấy	-8.32772
▁ngoài	-8.33071
▁loài	-8.33191
▁minh	-8.33321
▁bé	-8.33699
▁ít	-8.33973
▁tay	-8.3426
▁tên	-8.34839
▁e	-8.34904
▁should	-8.35333
▁tài	-8.35432
▁find	-8.35464
▁create	-8.35618
▁ask	-8.3604
▁big	-8.36113
▁khí	-8.3614
▁âm	-8.36169
▁lập	-8.36204
▁nghiệp	-8.36236
▁cộng	-8.36417
▁mạnh	-8.36483
▁văn	-8.36804
▁luôn	-8.37162
▁dẫn	-8.37349
▁thử	-8.37601
▁vô	-8.38138
▁tinh	-8.38161
▁...	-8.38426
▁happen	-8.38607
▁brain	-8.38967
▁ví	-8.38999
▁end	-8.39137
▁tiêu	-8.3926
▁mẹ	-8.40139
▁phố	-8.4019
ông	-8.40232
▁dựng	-8.40252
▁chứng	-8.4044
▁tử	-8.40461
▁last	-8.40802
▁giả	-8.4097
▁idea	-8.40997
▁thought	-8.4146
▁nguyên	-8.41694
▁hướng	-8.41951
▁nhạc	-8.41967
▁important	-8.42302
▁hạn	-8.42708
▁re	-8.42757
▁love	-8.42912
▁tư	-8.42936
▁-	-8.43123
▁đứ	-8.43693
▁viết	-8.43864
▁đâu	-8.4427
▁kiến	-8.4437
▁thị	-8.44623
ic	-8.44632
▁đặc	-8.44666
▁nề	-8.44866
other	-8.4493
▁trái	-8.45561
▁vời	-8.45699
▁khu	-8.45848
▁before	-8.45951
▁chọn	-8.46378
▁chế	-8.46601
▁chức	-8.46703
▁giản	-8.46739
▁cụ	-8.47024
▁quyền	-8.47186
▁ứng	-8.47321
▁bào	-8.47441
▁phá	-8.47503
▁kh	-8.47598
ren	-8.47603
▁xu	-8.47837
▁mạng	-8.47947
▁chết	-8.4833
▁suy	-8.48713
▁đạo	-8.48713
▁triệu	-8.48784
▁đá	-8.4882
▁vụ	-8.48861
▁long	-8.48913
▁khiế	-8.48933
▁cấp	-8.49163
▁sĩ	-8.50007
▁phi	-8.50134
▁thần	-8.502
▁course	-8.50204
▁never	-8.50227
▁problem	-8.50236
▁tăng	-8.50637
▁màu	-8.50815
▁lẽ	-8.50907
▁might	-8.51046
▁tháng	-8.51118
▁help	-8.51614
▁live	-8.51981
▁dù	-8.52267
▁bit	-8.52387
▁h	-8.52678
▁him	-8.52729
▁khỏ	-8.52928
went	-8.53003
▁cực	-8.53164
th	-8.535
▁dưới	-8.53732
▁example	-8.53805
▁đánh	-8.54044
▁off	-8.54424
ánh	-8.54451
▁án	-8.54519
▁better	-8.54768
▁each	-8.54841
▁again	-8.5521
▁next	-8.55214
ally	-8.55242
▁still	-8.55363
▁gặp	-8.55443
▁point	-8.55494
▁ng	-8.55498
▁xác	-8.55521
ation	-8.55561
▁xin	-8.55842
▁story	-8.55851
▁xuống	-8.5634
ers	-8.56409
▁bay	-8.56909
▁thêm	-8.56952
▁chút	-8.5705
▁nhóm	-8.57267
▁learn	-8.57327
▁ted	-8.57384
▁able	-8.57418
▁few	-8.57557
▁ph	-8.57734
▁came	-8.5779
▁system	-8.58025
▁gắng	-8.58259
▁dịch	-8.58332
▁dữ	-8.58477
▁phép	-8.58558
st	-8.58671
ân	-8.58726
▁tổ	-8.58767
▁mở	-8.59182
ắp	-8.59315
▁trò	-8.59396
▁quanh	-8.59425
▁chẳ	-8.59426
z	-8.59748
▁al	-8.60004
▁place	-8.60215
or	-8.60307
▁mức	-8.60423
▁together	-8.60673
▁vực	-8.60903
▁question	-8.60981
hôm	-8.60993
▁un	-8.61391
▁tham	-8.61423
ce	-8.61557
▁quay	-8.61569
▁design	-8.61603
▁thuyết	-8.6161
▁đàn	-8.61667
ity	-8.61702
▁million	-8.61785
▁play	-8.61861
▁chia	-8.62026
▁nhanh	-8.62097
▁dạng	-8.62355
▁gâ	-8.63076
▁found	-8.63217
▁ago	-8.63529
▁nguồn	-8.63539
▁between	-8.6362
▁bố	-8.63701
▁xa	-8.63702
▁vùng	-8.63864
est	-8.64205
▁school	-8.64538
▁per	-8.64586
▁báo	-8.64695
▁duy	-8.64762
▁women	-8.64928
▁cảnh	-8.64958
out	-8.65095
ment	-8.65131
▁believe	-8.65239
▁vọng	-8.65267
▁water	-8.65316
▁đôi	-8.65416
▁data	-8.65598
▁sort	-8.65676
▁châu	-8.65684
▁càng	-8.65833
iểu	-8.65842
▁second	-8.65861
▁vũ	-8.65925
hậm	-8.65992
▁cell	-8.66087
▁la	-8.66274
▁chú	-8.663
▁30	-8.66537
▁thư	-8.67045
▁dễ	-8.67101
▁giác	-8.67113
▁trang	-8.67289
▁phía	-8.67467
▁tục	-8.67584
us	-8.67686
▁đẹp	-8.67849
ar	-8.6797
▁đoạn	-8.68212
f	-8.68271
▁cây	-8.68274
▁video	-8.68359
▁sát	-8.68363
▁đủ	-8.68789
▁nhớ	-8.69216
▁kì	-8.69562
▁sợ	-8.69753
▁u	-8.69998
▁become	-8.70077
▁understand	-8.70151
▁phim	-8.7048
▁light	-8.7116
▁hưởng	-8.71473
▁man	-8.71587
▁maybe	-8.71851
▁home	-8.71929
▁da	-8.72011
▁hoa	-8.72226
▁kiểm	-8.72354
▁four	-8.72368
▁thương	-8.72651
▁too	-8.72714
▁vòng	-8.73181
▁co	-8.74018
▁turn	-8.746
body	-8.74638
▁done	-8.74761
▁dài	-8.74867
▁phản	-8.74867
▁luận	-8.74869
▁hồi	-8.75167
▁ngữ	-8.75238
▁50	-8.75356
▁technology	-8.75414
la	-8.75843
ld	-8.76046
▁ga	-8.76093
▁x	-8.76335
▁ever	-8.77191
▁cậu	-8.77547
▁trời	-8.77865
▁lai	-8.77878
▁kia	-8.78149
▁always	-8.78193
▁chi	-8.78205
▁giảm	-8.78284
▁vừ	-8.78578
▁ty	-8.78592
▁thôi	-8.78633
▁dục	-8.78704
▁chân	-8.78927
selve	-8.78949
▁bước	-8.79161
▁person	-8.79163
▁lợi	-8.79422
▁money	-8.79518
▁lo	-8.79742
▁cha	-8.79949
ập	-8.80177
ằm	-8.80281
▁đầy	-8.80286
ầm	-8.80429
▁kiếm	-8.80572
▁thuốc	-8.80871
▁tích	-8.81153
▁5	-8.81515
▁mục	-8.8175
▁whole	-8.8187
▁old	-8.81885
▁internet	-8.82023
▁toán	-8.82127
▁trăm	-8.8225
▁hầu	-8.82327
▁guy	-8.82462
▁trụ	-8.82698
▁giao	-8.82751
▁đô	-8.8309
▁power	-8.83147
▁tra	-8.83519
▁working	-8.83543
▁đình	-8.83696
▁feel	-8.83874
▁p	-8.84178
▁information	-8.84195
▁4	-8.84228
▁project	-8.84278
▁five	-8.84413
ok	-8.84701
▁vâng	-8.84709
ri	-8.84755
▁ni	-8.84795
▁địa	-8.84894
▁food	-8.85
▁am	-8.85105
▁kids	-8.85105
▁country	-8.85299
▁space	-8.85394
▁sâu	-8.85517
▁giữ	-8.85936
▁experience	-8.86034
▁diện	-8.86107
▁phục	-8.86417
▁reason	-8.86469
▁tồn	-8.86617
▁thanh	-8.86814
▁100	-8.86866
▁away	-8.86966
▁trải	-8.87013
▁tạp	-8.87062
▁dàn	-8.87272
▁luật	-8.87335
▁thí	-8.87568
▁everything	-8.87748
▁sư	-8.88026
▁lã	-8.88154
▁nối	-8.88162
ever	-8.88163
▁nam	-8.88206
▁lòng	-8.88396
▁đoán	-8.88578
▁tố	-8.88844
▁vệ	-8.89048
▁riêng	-8.891
ra	-8.89235
▁thuộc	-8.89312
▁căn	-8.89413
el	-8.89419
▁high	-8.89547
▁vẻ	-8.89739
▁dạy	-8.89742
▁rộng	-8.89838
▁lịch	-8.89949
▁tối	-8.90088
▁mắt	-8.90153
▁case	-8.90218
▁đạt	-8.90365
li	-8.90515
▁đứng	-8.90637
▁phủ	-8.90687
▁nổi	-8.90839
▁kỹ	-8.91218
▁moment	-8.91443
▁building	-8.91557
▁tá	-8.91613
91	-8.91616
▁mẫu	-8.91775
▁form	-8.92375
▁lệ	-8.92547
▁thúc	-8.92567
▁ca	-8.92638
▁health	-8.92727
▁thái	-8.92843
▁car	-8.92992
making	-8.93066
▁number	-8.93082
▁ấn	-8.93163
▁small	-8.93196
▁under	-8.93244
▁bàn	-8.93336
▁picture	-8.93381
▁đọc	-8.93392
▁thiên	-8.9367
▁de	-8.93759
coming	-8.93941
▁war	-8.94001
▁basic	-8.9413
▁hard	-8.9414
▁develop	-8.94151
▁chương	-8.94747
▁quy	-8.94786
▁social	-8.94938
▁lớp	-8.95035
▁cuốn	-8.9604
▁future	-8.96041
▁kỷ	-8.96045
▁15	-8.96062
quite	-8.96315
▁less	-8.96339
▁chạy	-8.96378
▁best	-8.96537
▁yếu	-8.96718
▁open	-8.9676
▁sẻ	-8.96855
▁mối	-8.97511
▁hand	-8.97797
▁okay	-8.98083
▁ngồi	-8.98084
▁tiết	-8.98091
▁gái	-8.98427
▁vui	-8.98501
▁phút	-8.98716
▁phí	-8.99068
▁science	-8.99119
▁thinking	-8.99242
▁hoà	-8.99467
▁khoẻ	-8.99468
▁suốt	-8.99492
▁ké	-8.99515
▁sense	-8.99543
▁move	-8.99584
▁buổi	-8.99976
▁biển	-9.00284
▁trợ	-9.00302
▁ngôn	-9.00487
▁chắn	-9.00636
▁left	-9.00755
▁kiểu	-9.00921
▁answer	-9.0099
▁bring	-9.0148
▁process	-9.01867
▁enough	-9.01938
ness	-9.0205
▁group	-9.02079
▁energy	-9.02177
▁ban	-9.02543
▁kiện	-9.02576
▁chung	-9.02618
▁mua	-9.0273
▁tỉ	-9.02738
▁men	-9.02782
▁times	-9.02917
▁lạ	-9.03368
▁nh	-9.03554
▁đông	-9.03613
ur	-9.03646
▁trúc	-9.03649
93;	-9.04037
▁imagine	-9.04086
▁doanh	-9.04107
▁sở	-9.04267
▁tuần	-9.04473
ta	-9.04634
▁art	-9.04731
▁hy	-9.04833
▁probabl	-9.04839
▁viện	-9.0486
▁ngô	-9.04873
▁sắc	-9.04915
▁vận	-9.05104
▁cửa	-9.05318
▁đa	-9.05499
▁job	-9.0554
▁cánh	-9.05702
▁body	-9.05813
▁ngạc	-9.05859
▁xét	-9.05996
▁bán	-9.06119
▁room	-9.06258
▁business	-9.06695
▁khám	-9.07035
an	-9.07159
▁keep	-9.07322
▁simple	-9.07454
▁grow	-9.07544
▁xúc	-9.07575
▁lâu	-9.07713
▁interesting	-9.07856
▁side	-9.07865
▁pretty	-9.08079
▁city	-9.08204
ăm	-9.08207
x	-9.08276
▁lí	-9.08342
▁lives	-9.08564
▁countries	-9.08587
ter	-9.08809
te	-9.09061
▁build	-9.09076
amp	-9.09136
▁image	-9.09235
2	-9.0926
--	-9.0935
▁nhiệm	-9.09354
▁ràng	-9.09354
▁cấu	-9.09424
▁head	-9.09497
▁face	-9.09664
▁hiểm	-9.09997
▁dollars	-9.10028
▁thoại	-9.10126
▁chụp	-9.10645
▁mặc	-9.10775
▁walk	-9.11025
▁kích	-9.11044
▁phức	-9.11167
▁40	-9.11182
▁half	-9.115
▁quý	-9.11822
▁yet	-9.11964
▁large	-9.1203
▁while	-9.12148
▁bác	-9.12199
▁trạ	-9.12288
▁bóng	-9.12293
man	-9.12296
▁billion	-9.12363
▁nhập	-9.1263
▁băng	-9.12648
▁seem	-9.12741
▁chuyên	-9.13045
▁such	-9.13162
▁unit	-9.13225
▁mind	-9.13493
▁else	-9.13546
▁cung	-9.13874
▁ma	-9.13945
▁ngành	-9.14125
▁york	-9.14199
cross	-9.1477
▁chà	-9.14881
ck	-9.14888
▁chứ	-9.14893
▁kẻ	-9.14907
▁language	-9.15028
▁stuff	-9.15165
v	-9.15199
▁19	-9.15383
▁far	-9.15392
▁inside	-9.15396
▁ghi	-9.15507
▁allow	-9.15515
▁cạnh	-9.15579
▁độc	-9.15579
▁chỗ	-9.15583
▁piece	-9.15742
▁once	-9.15773
▁gett	-9.16169
self	-9.16198
▁line	-9.16251
ro	-9.16275
▁saw	-9.16401
ten	-9.16628
lo	-9.16749
▁oh	-9.16845
▁hữu	-9.16947
▁living	-9.16947
w	-9.17575
▁model	-9.17652
▁ver	-9.17802
ent	-9.17802
▁trưởng	-9.17925
▁khủng	-9.182
▁tim	-9.18306
▁student	-9.18341
▁đức	-9.18342
▁anything	-9.18482
▁set	-9.18497
▁đố	-9.18835
▁vẽ	-9.19049
▁watch	-9.19192
▁week	-9.19327
▁family	-9.19328
▁tổng	-9.19356
▁later	-9.1937
▁dung	-9.19399
▁tấm	-9.1947
▁gi	-9.19553
▁run	-9.19662
ate	-9.19673
ne	-9.19727
▁hoạ	-9.19805
▁six	-9.19897
less	-9.20041
▁complete	-9.20083
▁y	-9.20202
▁care	-9.20235
▁chuẩn	-9.20469
▁phúc	-9.20648
▁bad	-9.20682
▁tức	-9.20756
▁hav	-9.20919
▁khăn	-9.20944
▁ô	-9.21001
▁age	-9.21115
▁music	-9.21331
▁earth	-9.21337
▁tệ	-9.21393
ăn	-9.21443
▁trai	-9.21467
▁ích	-9.21622
▁game	-9.21737
▁xanh	-9.21863
▁remember	-9.21913
▁chịu	-9.22122
▁government	-9.22227
▁o	-9.22405
▁global	-9.22479
▁wrong	-9.22496
▁thiếu	-9.22538
▁6	-9.22623
▁makes	-9.22675
▁close	-9.22758
▁single	-9.2279
▁sắp	-9.2292
▁hề	-9.22937
▁lắng	-9.23083
▁12	-9.23109
ma	-9.23169
▁hơi	-9.2325
um	-9.23263
▁book	-9.23295
▁particular	-9.23822
▁nhiêu	-9.23825
ận	-9.24015
▁name	-9.24041
▁mong	-9.2429
▁phạm	-9.24566
▁tây	-9.24865
▁áp	-9.24952
iễn	-9.25111
▁chống	-9.25466
▁sure	-9.25576
▁happens	-9.25701
▁đau	-9.25733
▁area	-9.26026
▁public	-9.26071
▁share	-9.26225
▁lạc	-9.26248
▁mù	-9.26251
ương	-9.26366
▁niệm	-9.26374
age	-9.26384
▁hope	-9.26387
hether	-9.26688
▁thousand	-9.26832
ting	-9.26838
▁control	-9.2684
▁bánh	-9.26894
ềm	-9.26957
▁18	-9.26986
▁toà	-9.27166
▁heart	-9.27197
▁nothing	-9.27296
▁thất	-9.27431
▁xử	-9.27446
▁both	-9.27451
▁states	-9.27576
▁ngh	-9.27731
▁american	-9.27824
▁nguy	-9.28002
▁certain	-9.28061
▁robot	-9.28083
▁200	-9.28089
▁study	-9.28216
▁often	-9.2828
▁computer	-9.28805
▁nội	-9.28994
fi	-9.29023
▁matter	-9.29291
▁7	-9.29507
▁level	-9.29523
▁lựa	-9.2962
▁vượ	-9.29685
▁du	-9.29825
▁top	-9.29901
ơi	-9.30027
▁hạ	-9.30094
▁final	-9.30304
to	-9.30307
▁khố	-9.30442
▁myself	-9.30568
▁research	-9.3058
▁ẩn	-9.30726
▁cổ	-9.30736
▁young	-9.30781
▁gử	-9.30888
▁dò	-9.30893
▁trực	-9.30895
▁tỷ	-9.30909
ấu	-9.30942
▁hạt	-9.31028
▁almost	-9.31364
▁words	-9.31423
▁realize	-9.31469
▁exact	-9.31684
▁hộ	-9.31768
▁mật	-9.31859
▁read	-9.31881
▁khổ	-9.32009
▁days	-9.32122
▁hậu	-9.32327
▁house	-9.32623
▁đội	-9.32638
▁seen	-9.32677
▁true	-9.32799
▁eat	-9.32879
▁difference	-9.32975
▁khắc	-9.33217
▁saying	-9.33218
▁problems	-9.33523
▁qu	-9.33721
▁xấu	-9.33807
▁dương	-9.33829
▁web	-9.33848
▁interest	-9.34132
▁community	-9.34284
▁possible	-9.3431
▁dần	-9.34463
▁africa	-9.34513
▁amazing	-9.34613
▁ngoại	-9.34613
▁ways	-9.34833
ian	-9.34859
▁self	-9.34915
▁thả	-9.34953
▁danh	-9.35066
▁hứng	-9.3511
▁sang	-9.35345
▁disease	-9.35443
▁test	-9.35592
▁lưu	-9.35616
▁spend	-9.35674
▁thủ	-9.35795
▁st	-9.35923
▁kính	-9.35973
old	-9.3609
▁nhiệt	-9.36111
ia	-9.3625
▁chiều	-9.36307
▁dầu	-9.36312
ĩ	-9.36422
▁individual	-9.36447
3	-9.36637
▁cost	-9.3674
▁thiện	-9.36784
▁free	-9.36881
▁stand	-9.36955
▁ideas	-9.37052
▁già	-9.3707
ready	-9.37104
▁couple	-9.37122
▁yes	-9.37417
▁entire	-9.37461
▁history	-9.37461
▁order	-9.37805
▁figure	-9.37883
▁issue	-9.37978
▁ngược	-9.38146
▁dấu	-9.38181
▁chá	-9.3819
▁bo	-9.3821
▁state	-9.3841
pe	-9.38425
▁beautiful	-9.38658
▁sometimes	-9.38831
▁chữ	-9.38835
ù	-9.38958
▁tội	-9.39002
▁unti	-9.39182
▁google	-9.39348
up	-9.39633
vi	-9.39639
▁tả	-9.39888
▁ung	-9.39947
▁đóng	-9.39989
▁decided	-9.39995
▁environment	-9.40183
▁night	-9.4041
▁patient	-9.40412
de	-9.4048
▁nạn	-9.40557
▁universe	-9.40567
▁ước	-9.40662
na	-9.40739
▁past	-9.4088
▁nghi	-9.41185
gan	-9.4122
▁đấu	-9.4131
▁built	-9.41312
▁tuy	-9.4137
ắm	-9.41419
▁middle	-9.41448
▁thách	-9.41477
po	-9.41589
ir	-9.41616
▁nỗi	-9.41658
ba	-9.41798
nstead	-9.41802
▁hundred	-9.41802
▁word	-9.41807
ary	-9.42033
▁education	-9.4205
▁cận	-9.42133
▁stories	-9.42161
▁heard	-9.42198
▁đẩ	-9.42377
▁ok	-9.42427
where	-9.42583
▁nghị	-9.42844
▁since	-9.42875
▁societ	-9.43196
▁follow	-9.43232
▁value	-9.43233
▁ngủ	-9.43416
▁stop	-9.43591
▁chữa	-9.4363
ệt	-9.43707
▁25	-9.43817
▁đen	-9.43856
▁khách	-9.43886
ầu	-9.43983
▁months	-9.44564
▁khoá	-9.44709
▁cancer	-9.4487
▁planet	-9.45157
▁air	-9.4516
▁kê	-9.45254
ance	-9.45305
▁nhờ	-9.45419
▁8	-9.45439
came	-9.45538
son	-9.45552
▁mov	-9.45639
ry	-9.45785
▁nuôi	-9.45786
▁nửa	-9.45969
ie	-9.4597
ol	-9.46135
▁quân	-9.46175
▁tắc	-9.46199
▁dur	-9.46216
▁nature	-9.46343
▁huge	-9.46349
▁pro	-9.46418
▁though	-9.46512
▁quản	-9.46521
▁cư	-9.46638
▁minutes	-9.4671
▁80	-9.46758
▁woman	-9.46899
▁mother	-9.46962
▁god	-9.47301
▁tiện	-9.4746
ine	-9.47744
▁listen	-9.47878
▁giấy	-9.47909
▁bại	-9.48026
▁lĩnh	-9.48214
▁pay	-9.48241
▁china	-9.48251
new	-9.48404
▁sound	-9.48597
▁quick	-9.48607
ke	-9.48625
▁friends	-9.48815
▁lỗi	-9.48841
▁yeah	-9.49165
▁cử	-9.49189
1	-9.49198
▁60	-9.49426
▁lan	-9.49627
▁experiment	-9.49674
▁economic	-9.49776
▁hát	-9.49935
▁bắc	-9.49974
▁team	-9.49988
▁teacher	-9.50053
me	-9.50118
▁dây	-9.50125
▁nhiễm	-9.50125
▁ho	-9.50208
▁clear	-9.50318
▁focus	-9.50318
▁culture	-9.50359
▁cắt	-9.50511
▁soát	-9.50552
▁green	-9.50615
▁mã	-9.50627
▁hoạch	-9.50749
▁term	-9.50881
▁khiển	-9.50923
▁trừ	-9.51185
▁force	-9.5163
▁chị	-9.51673
▁gồm	-9.5168
▁quen	-9.51876
▁act	-9.52074
▁hear	-9.52168
ist	-9.52202
▁leave	-9.52269
▁đừng	-9.52276
▁9	-9.52439
▁sóc	-9.52676
▁third	-9.52933
▁sun	-9.53042
▁mơ	-9.53097
▁challenge	-9.53223
▁cười	-9.53277
▁chim	-9.53383
▁los	-9.53444
▁giết	-9.53462
▁population	-9.53659
▁11	-9.53753
▁xếp	-9.53873
▁natural	-9.53893
▁thẳng	-9.53922
▁hại	-9.5427
▁must	-9.54302
▁happening	-9.54344
▁đích	-9.5446
▁đêm	-9.54471
▁bốn	-9.54504
▁mê	-9.54512
▁lái	-9.54514
▁phóng	-9.54538
▁khán	-9.54602
ge	-9.54605
▁điển	-9.54662
co	-9.54771
▁hi	-9.54858
▁hours	-9.54892
▁chiếu	-9.54909
et	-9.54915
▁phong	-9.54934
▁na	-9.54974
▁nhật	-9.55071
▁base	-9.55103
▁bí	-9.55118
ê	-9.55179
ant	-9.55373
ard	-9.55449
▁li	-9.55465
▁front	-9.55545
▁lưới	-9.55678
▁khai	-9.55683
▁thấp	-9.55724
▁san	-9.55765
ga	-9.55859
▁won	-9.55876
▁ngắn	-9.5629
▁ngâ	-9.56343
▁rather	-9.56358
▁cập	-9.56424
▁gấp	-9.56527
▁tàu	-9.56701
▁ngờ	-9.56707
▁black	-9.56839
9	-9.56845
▁gen	-9.56889
▁rối	-9.57114
▁hồ	-9.57219
▁dàng	-9.57399
tic	-9.57471
▁niên	-9.57528
▁kỉ	-9.57535
▁pre	-9.57589
▁gốc	-9.5759
▁vai	-9.57615
▁sàng	-9.57747
▁đà	-9.57794
▁hiv	-9.57825
▁machine	-9.57862
▁đo	-9.57893
ful	-9.57918
▁chúa	-9.57956
▁lá	-9.57971
▁works	-9.58118
▁plant	-9.58295
▁đổ	-9.58316
▁lộ	-9.58364
▁color	-9.58394
▁full	-9.58415
▁tu	-9.58483
▁company	-9.58572
▁bày	-9.58586
▁tù	-9.58741
▁giây	-9.58782
▁siêu	-9.59235
▁buy	-9.59438
▁lắm	-9.59466
▁questions	-9.59616
▁america	-9.59621
▁paper	-9.5963
▁bang	-9.59671
▁discover	-9.59677
▁tôn	-9.59708
▁chuyến	-9.59839
▁đem	-9.60041
▁món	-9.60063
▁hold	-9.60289
▁land	-9.60333
▁audience	-9.60693
▁india	-9.60792
▁explain	-9.60908
▁trách	-9.60917
▁cáo	-9.61099
▁difficult	-9.61123
▁father	-9.61123
▁thụ	-9.61135
▁coi	-9.6134
▁đỡ	-9.61359
ton	-9.61406
▁market	-9.61457
▁film	-9.61554
▁short	-9.61554
ish	-9.61611
ru	-9.61621
▁arm	-9.61889
tion	-9.61969
cy	-9.61983
▁happy	-9.61987
ph	-9.62058
▁đợi	-9.6207
pa	-9.62099
▁ngàn	-9.62148
▁dna	-9.62251
▁fear	-9.62432
▁bạo	-9.62455
▁ảo	-9.62483
▁xuyên	-9.62874
▁nhảy	-9.62912
▁outside	-9.62916
▁oil	-9.62976
▁gắn	-9.63039
▁seven	-9.63059
▁lead	-9.63203
▁dừng	-9.63527
▁view	-9.63536
▁simpl	-9.63588
haps	-9.6395
▁places	-9.64009
ling	-9.64038
▁kill	-9.64114
▁structure	-9.64215
▁news	-9.64323
▁ro	-9.6447
▁hài	-9.64543
▁media	-9.64564
▁thoả	-9.64864
▁learning	-9.65072
▁wait	-9.65078
▁khoản	-9.65086
▁early	-9.65184
▁along	-9.65203
▁sea	-9.65295
▁ký	-9.65303
against	-9.65536
▁death	-9.65539
ào	-9.65692
▁boy	-9.65696
▁thơ	-9.65742
▁âu	-9.65757
ca	-9.65989
▁powerful	-9.65991
▁trù	-9.66028
ằng	-9.66053
▁amount	-9.66089
king	-9.66347
▁fall	-9.66449
ous	-9.66488
▁mả	-9.66493
▁tầng	-9.66664
▁center	-9.66708
êu	-9.67088
▁turns	-9.67329
▁lao	-9.67934
▁deep	-9.67969
▁obvious	-9.6803
▁species	-9.6803
ấp	-9.68067
▁local	-9.68262
▁dis	-9.68282
▁90	-9.68344
com	-9.68419
▁nghiê	-9.68437
▁compani	-9.68492
▁đỏ	-9.68503
▁behavior	-9.68557
▁phổ	-9.68953
rew	-9.69118
ism	-9.69396
▁poor	-9.69435
▁personal	-9.69475
▁sa	-9.6948
▁f	-9.69542
▁program	-9.69634
▁least	-9.69658
▁đảm	-9.69658
▁easy	-9.69658
▁john	-9.69889
▁save	-9.7007
▁tải	-9.7009
bo	-9.70368
▁die	-9.70375
▁chố	-9.70446
▁risk	-9.706
▁choice	-9.7094
▁eight	-9.71074
▁hấp	-9.71097
▁goe	-9.71186
ler	-9.71352
▁wall	-9.71395
▁khở	-9.71444
▁stage	-9.7145
▁góc	-9.71558
▁camera	-9.71595
behind	-9.71791
▁animals	-9.71826
▁feeling	-9.71876
▁nhắc	-9.71889
ither	-9.71948
▁pick	-9.72036
▁mạch	-9.72057
go	-9.72063
▁rừng	-9.72083
▁somebod	-9.72126
▁chỉnh	-9.72183
▁produce	-9.72221
▁lồ	-9.72319
▁dĩ	-9.72321
▁hộp	-9.72398
▁70	-9.72589
▁hút	-9.72753
▁chuột	-9.72995
▁lab	-9.73046
uyên	-9.73171
▁mấy	-9.73238
▁stay	-9.73445
▁khuôn	-9.73485
▁thải	-9.73506
▁nhu	-9.73648
▁political	-9.73914
▁hit	-9.73989
land	-9.74179
▁ổn	-9.74347
▁systems	-9.74428
▁object	-9.74452
▁major	-9.7446
▁rest	-9.74567
▁yourself	-9.74603
▁bar	-9.74683
▁common	-9.74707
▁hẳn	-9.7485
▁safe	-9.74915
▁luyện	-9.74954
▁su	-9.75144
▁cà	-9.75166
▁cause	-9.75391
▁fight	-9.75449
▁speak	-9.75451
year	-9.75642
▁doctor	-9.75698
▁phẫ	-9.75865
▁chấ	-9.75875
▁support	-9.75947
▁dream	-9.75947
ated	-9.76087
▁ko	-9.76212
▁century	-9.76298
▁physical	-9.76448
▁deal	-9.76567
▁present	-9.7668
00	-9.76725
▁tín	-9.76807
▁normal	-9.76958
▁low	-9.77057
da	-9.77288
▁girl	-9.77364
▁bill	-9.77433
▁blue	-9.77457
▁friend	-9.77573
▁tấn	-9.77711
▁phận	-9.778
ized	-9.77826
▁kim	-9.77838
▁giàu	-9.77839
▁felt	-9.77966
▁relationship	-9.77966
▁feet	-9.7797
▁wonderful	-9.77972
▁mo	-9.77993
▁voice	-9.78152
▁add	-9.78332
▁thắng	-9.78481
▁notice	-9.78616
▁street	-9.78708
▁đảo	-9.78989
▁tv	-9.78996
▁absolute	-9.79247
▁device	-9.79247
▁tuyến	-9.79247
▁huỷ	-9.79266
4	-9.79392
▁buồn	-9.79441
▁liệt	-9.79516
▁giọng	-9.79545
▁access	-9.79765
▁chứa	-9.79834
▁ocean	-9.80024
▁organization	-9.80029
▁exist	-9.80047
▁step	-9.80092
▁size	-9.80182
▁generation	-9.80285
▁quyển	-9.80285
▁pass	-9.80288
▁bi	-9.80317
▁beginning	-9.80548
▁phone	-9.80657
▁general	-9.80809
▁send	-9.80925
▁pattern	-9.81099
▁photograph	-9.81107
▁vĩ	-9.81108
▁drive	-9.81119
▁nặng	-9.81333
▁perfect	-9.81333
▁che	-9.81363
▁môn	-9.81527
▁wonder	-9.81591
ial	-9.816
▁16	-9.81655
▁national	-9.817
▁service	-9.81862
▁south	-9.81864
▁key	-9.81874
▁red	-9.8191
do	-9.82034
▁nô	-9.82046
,000	-9.821
▁complex	-9.82109
▁sóng	-9.82127
▁near	-9.82146
▁vân	-9.8217
ợ	-9.82366
▁begin	-9.82392
▁dậy	-9.82393
▁longer	-9.82415
▁song	-9.82458
▁màn	-9.82497
▁david	-9.8266
▁chờ	-9.82686
▁hands	-9.82717
ốc	-9.82752
▁mềm	-9.82754
▁sh	-9.82897
▁eyes	-9.82959
▁ti	-9.83227
▁ống	-9.8325
▁sơ	-9.83419
▁resource	-9.83469
▁non	-9.83533
▁spen	-9.83543
ễ	-9.83595
▁buộc	-9.8375
▁máu	-9.8376
▁chủng	-9.83799
âm	-9.83842
ability	-9.83937
▁chóng	-9.8394
▁strong	-9.84004
▁protein	-9.84275
iếc	-9.84351
▁tree	-9.84385
tor	-9.84387
hiệu	-9.84401
▁ground	-9.84483
▁reach	-9.84557
▁điên	-9.8482
▁treat	-9.84825
▁cool	-9.84844
▁cities	-9.8485
▁cũ	-9.84891
▁uống	-9.85098
▁ồ	-9.85146
▁sp	-9.85154
▁write	-9.85161
▁mắn	-9.85366
▁consider	-9.85366
▁linh	-9.85442
rời	-9.85556
▁dưỡng	-9.85651
▁movement	-9.85682
▁carbon	-9.85705
▁condition	-9.85949
▁sleep	-9.86003
▁loạn	-9.86197
▁tồi	-9.8622
ber	-9.86227
ac	-9.86332
taking	-9.8638
▁sudden	-9.8647
▁mẽ	-9.86487
rought	-9.86573
▁se	-9.86595
▁impact	-9.86747
ize	-9.86907
▁parents	-9.86992
ha	-9.87021
ôi	-9.87259
▁14	-9.87345
am	-9.87352
ỏng	-9.87354
▁white	-9.8738
▁tường	-9.87423
ow	-9.87512
▁travel	-9.87586
ig	-9.87628
▁growth	-9.8763
▁tảng	-9.87687
▁lầm	-9.8771
▁trắng	-9.87866
▁rate	-9.88058
▁fire	-9.88321
▁thưởng	-9.88441
▁bảng	-9.88675
▁nấ	-9.8871
▁vững	-9.88714
▁fun	-9.88758
▁online	-9.88882
giving	-9.89032
▁sửa	-9.89131
▁break	-9.89139
▁lạnh	-9.89409
,	-9.89613
▁afghanistan	-9.89855
▁morning	-9.89856
ẫu	-9.89893
▁nice	-9.89969
▁ka	-9.90042
▁average	-9.90142
▁virus	-9.90143
▁tờ	-9.90492
▁scale	-9.90695
▁chris	-9.90727
▁dead	-9.90795
▁17	-9.90907
▁universit	-9.91009
ơ	-9.91204
▁tried	-9.91206
▁animal	-9.91257
hiển	-9.91282
ục	-9.91326
q	-9.91442
▁bigge	-9.9151
▁góp	-9.91592
lin	-9.91626
▁main	-9.91674
ữa	-9.91689
▁hà	-9.91786
les	-9.91791
▁born	-9.91891
▁opportunity	-9.9191
▁ngừ	-9.9192
▁mái	-9.91962
▁kid	-9.92038
▁ice	-9.92042
▁hãi	-9.92061
▁sex	-9.92237
▁material	-9.92454
▁extreme	-9.92471
▁knowledge	-9.92487
▁slow	-9.92534
6	-9.92687
▁attention	-9.92766
▁english	-9.92766
▁áo	-9.92836
▁innovation	-9.93062
▁revolution	-9.93069
▁solve	-9.93174
▁potential	-9.93359
▁13	-9.93592
▁núi	-9.93657
▁approach	-9.93955
▁đỉnh	-9.93955
▁books	-9.93994
▁tiểu	-9.94155
▁lẫn	-9.94254
▁type	-9.94326
▁reality	-9.9436
▁à	-9.94384
▁tộc	-9.94555
uỷ	-9.94673
▁raise	-9.94726
▁quỹ	-9.94856
▁dường	-9.94888
▁network	-9.94895
▁tổn	-9.94918
hi	-9.9496
▁expect	-9.95139
▁hospital	-9.95158
▁đe	-9.95178
▁trồng	-9.9518
▁tri	-9.9523
▁tốn	-9.9529
▁quên	-9.9536
▁field	-9.95361
▁protect	-9.95434
▁record	-9.95532
▁trận	-9.95545
▁rich	-9.95728
▁diệu	-9.95765
▁quần	-9.95772
▁sitt	-9.9578
▁lố	-9.95817
▁bank	-9.9586
▁eye	-9.96155
per	-9.96257
▁train	-9.96283
▁sit	-9.96348
▁modern	-9.96376
▁needs	-9.96493
▁economy	-9.96682
▁hảo	-9.96717
▁product	-9.96749
▁21	-9.96846
▁canno	-9.96879
ưa	-9.96943
▁teach	-9.96977
▁giỏi	-9.9699
▁message	-9.96994
bi	-9.97184
▁cut	-9.97236
▁situation	-9.97299
▁region	-9.97299
▁toward	-9.97332
▁action	-9.97343
▁development	-9.97348
changing	-9.97423
▁moral	-9.97518
▁bề	-9.9753
▁chó	-9.97543
ẻ	-9.97707
▁scientists	-9.9779
▁mời	-9.97792
▁trì	-9.97884
▁khuẩn	-9.97919
▁blood	-9.97919
▁class	-9.98055
rote	-9.98175
▁shape	-9.98201
▁nhé	-9.9822
▁ủng	-9.98231
▁law	-9.98518
▁el	-9.9853
▁vợ	-9.98572
▁nóng	-9.98636
▁cầm	-9.98716
▁office	-9.9881
▁tô	-9.98918
▁thù	-9.98949
▁climate	-9.99171
▁studie	-9.99171
▁stress	-9.99171
▁nghì	-9.99175
the	-9.99303
8	-9.9937
▁molecule	-9.99394
▁pull	-9.99516
ẩm	-9.99581
▁chấm	-9.99792
▁led	-9.99794
▁phấn	-10.0012
▁chạm	-10.0012
▁plan	-10.0013
op	-10.0015
▁mãi	-10.0026
▁result	-10.003
▁cỡ	-10.0049
ron	-10.0054
▁bền	-10.0066
▁incredible	-10.0076
▁xương	-10.0079
▁bật	-10.0083
▁z	-10.009
ical	-10.0091
▁j	-10.0098
uỗi	-10.0104
▁increase	-10.0108
▁slide	-10.0116
ran	-10.0129
▁sánh	-10.017
low	-10.0171
▁nghỉ	-10.0173
▁runni	-10.0197
▁truth	-10.0206
ley	-10.0216
▁nổ	-10.0224
tra	-10.0234
▁writing	-10.0236
▁success	-10.0236
▁chinese	-10.0237
▁sign	-10.0265
▁tools	-10.0266
▁affect	-10.027
▁smart	-10.0271
▁hôn	-10.0275
▁vố	-10.0277
▁measure	-10.0278
▁girls	-10.0282
bu	-10.0282
▁bottom	-10.0302
▁creating	-10.0302
▁website	-10.0302
▁hổ	-10.0303
▁specific	-10.0308
ường	-10.0334
▁surface	-10.0335
▁chance	-10.0346
line	-10.0357
▁meet	-10.0365
▁hỗ	-10.0367
▁guess	-10.0368
▁ex	-10.0382
▁le	-10.0386
▁road	-10.0394
cially	-10.0399
▁khẩu	-10.0402
▁table	-10.0405
▁chồng	-10.0405
▁khích	-10.0418
▁ne	-10.0427
▁strange	-10.0434
▁gió	-10.0435
▁lửa	-10.0436
be	-10.0445
▁connect	-10.0449
▁tiề	-10.0452
▁phiê	-10.0454
▁cap	-10.046
▁solution	-10.0463
▁biên	-10.0467
▁essential	-10.0467
▁literally	-10.0467
▁continue	-10.0478
▁nation	-10.0479
▁track	-10.0479
▁box	-10.0482
▁điệu	-10.0501
▁east	-10.0501
▁giấ	-10.0513
▁north	-10.0519
ạ	-10.0519
▁tách	-10.0529
▁ghế	-10.0534
▁facebook	-10.0534
▁baby	-10.0537
fa	-10.0554
j	-10.0555
▁source	-10.0559
▁similar	-10.0568
▁provide	-10.0569
▁join	-10.0571
▁ong	-10.0597
▁sáu	-10.0604
and	-10.0604
▁understanding	-10.0606
▁hô	-10.0611
▁rút	-10.0613
▁mass	-10.062
▁fast	-10.0628
▁soon	-10.0628
▁code	-10.063
▁sớm	-10.0635
▁bờ	-10.0642
▁mom	-10.0653
▁email	-10.0671
▁vỡ	-10.0671
ghề	-10.068
▁super	-10.0682
▁hoảng	-10.0686
▁hào	-10.0686
▁manage	-10.0693
▁forward	-10.0694
▁sót	-10.0703
▁trust	-10.0706
▁map	-10.0719
▁thịt	-10.0726
▁24	-10.0747
▁ha	-10.0748
▁cover	-10.0774
▁page	-10.0776
▁met	-10.078
ua	-10.0785
▁espe	-10.0806
iv	-10.0812
▁kịch	-10.0843
iếng	-10.0851
▁phối	-10.0853
▁star	-10.0853
▁alone	-10.0854
▁đươ	-10.0867
▁sạch	-10.0875
▁fail	-10.0875
▁gợ	-10.0879
▁chảy	-10.088
em	-10.0882
▁late	-10.0904
▁current	-10.091
▁iran	-10.091
▁thổ	-10.0912
▁chu	-10.0916
▁california	-10.0944
▁500	-10.0959
▁van	-10.0962
▁fly	-10.0973
▁village	-10.0979
ép	-10.0992
eo	-10.0999
▁thoát	-10.0999
▁khứ	-10.1015
▁vision	-10.1015
ating	-10.103
▁bọn	-10.1039
▁numbers	-10.1041
wa	-10.1042
▁loạt	-10.105
▁theory	-10.1063
▁nâ	-10.1066
▁technologi	-10.1085
▁tắt	-10.1085
▁digital	-10.1085
▁push	-10.1085
▁fair	-10.1086
▁lu	-10.1102
▁suất	-10.1113
▁post	-10.1114
▁collect	-10.1118
oc	-10.1127
▁đế	-10.1131
▁worth	-10.1139
▁trại	-10.1141
▁chậm	-10.1143
more	-10.115
▁hole	-10.1156
▁movie	-10.1163
▁khuyế	-10.1193
▁fish	-10.1197
▁sounds	-10.1212
iều	-10.122
incredibly	-10.1228
▁industry	-10.1228
▁secret	-10.1228
▁please	-10.1231
▁effective	-10.1235
▁telling	-10.1237
ỡ	-10.1239
▁tàn	-10.1253
▁pa	-10.1274
ho	-10.1283
▁activit	-10.1286
▁nine	-10.1286
he	-10.1289
▁asking	-10.131
▁games	-10.1312
ster	-10.1323
▁goal	-10.1329
▁avail	-10.1336
▁democracy	-10.1347
side	-10.1347
▁lỗ	-10.1363
▁dr	-10.1371
▁conversation	-10.1372
ence	-10.1376
▁pin	-10.1378
time	-10.1387
▁phê	-10.1412
deed	-10.1429
▁count	-10.1443
▁easi	-10.1446
▁hang	-10.1452
0	-10.1454
▁waste	-10.1456
ught	-10.1462
5	-10.1479
▁fundamental	-10.1482
▁trưng	-10.1482
▁creative	-10.1482
▁sỹ	-10.1482
▁trữ	-10.1483
▁offer	-10.1489
▁tai	-10.149
▁special	-10.1491
▁west	-10.1512
▁among	-10.1519
▁dark	-10.1521
▁recently	-10.1537
ors	-10.1548
▁suggest	-10.1553
▁journey	-10.1556
▁iraq	-10.1556
▁touch	-10.156
ose	-10.1584
▁london	-10.1593
▁túi	-10.1593
▁radio	-10.1602
▁mu	-10.1615
▁po	-10.1617
▁month	-10.1628
▁brazil	-10.1631
▁lose	-10.1636
.000	-10.1663
▁jo	-10.1665
▁hot	-10.1667
▁beyon	-10.167
▁materials	-10.167
▁cờ	-10.1671
▁kiệm	-10.1676
tro	-10.1679
▁equal	-10.168
ệp	-10.1691
gen	-10.1696
▁tán	-10.1697
▁dặm	-10.1706
▁favorite	-10.1706
▁happiness	-10.1709
▁store	-10.1712
uổi	-10.1716
▁benefit	-10.1743
▁xoa	-10.1744
▁lặp	-10.1747
▁conflict	-10.1751
▁sông	-10.1753
▁bơi	-10.1759
▁voi	-10.1766
▁tend	-10.1767
om	-10.177
▁period	-10.1781
▁direct	-10.1788
▁event	-10.1796
▁mine	-10.1819
ver	-10.1821
▁thước	-10.1823
aid	-10.1834
ền	-10.1834
▁sell	-10.1848
min	-10.1853
▁nhị	-10.1858
▁door	-10.1858
▁block	-10.1863
con	-10.1874
▁chặ	-10.1875
head	-10.1892
way	-10.1893
▁né	-10.1893
▁sub	-10.1895
▁peace	-10.1895
▁response	-10.1896
▁sw	-10.1896
▁vế	-10.1897
▁square	-10.19
▁scar	-10.1902
▁ngại	-10.1903
by	-10.1907
ak	-10.1916
▁cross	-10.1932
▁europe	-10.1933
▁aids	-10.1938
▁bu	-10.1944
▁meaning	-10.195
▁cars	-10.1962
va	-10.1968
▁rock	-10.1975
▁rules	-10.1984
▁describe	-10.1986
▁site	-10.1994
▁miles	-10.2006
▁medical	-10.2012
▁đò	-10.2014
▁dã	-10.2014
▁nhẹ	-10.2018
ef	-10.2033
▁nguyện	-10.2051
▁scientific	-10.2051
▁tụ	-10.2058
▁cam	-10.2083
▁paul	-10.209
▁connection	-10.2093
▁tàng	-10.2094
▁usual	-10.2102
▁israel	-10.2111
▁sand	-10.2128
▁kenya	-10.2129
▁vỏ	-10.213
▁nhắn	-10.2132
âu	-10.2139
▁thăm	-10.2145
▁list	-10.2151
▁draw	-10.2154
▁mark	-10.216
▁recognize	-10.2168
▁content	-10.2169
▁wish	-10.2173
▁screen	-10.2174
▁mit	-10.219
▁thai	-10.2196
▁đă	-10.2203
▁deliver	-10.2208
▁successful	-10.2209
od	-10.221
▁fund	-10.2241
▁ghép	-10.2255
▁thảm	-10.227
▁mỏ	-10.2278
▁nỗ	-10.2282
▁college	-10.2287
▁ngài	-10.2287
▁search	-10.2287
▁attack	-10.2287
▁thở	-10.2297
ần	-10.2313
▁spread	-10.2321
▁evidence	-10.2327
▁clean	-10.2327
▁memory	-10.2327
▁nhấ	-10.2336
▁cấ	-10.2367
▁position	-10.2374
▁lọc	-10.2375
▁win	-10.2389
7	-10.2394
▁account	-10.2408
▁stick	-10.2408
▁bò	-10.2416
▁bó	-10.2418
▁tạ	-10.2418
▁tru	-10.2423
▁factor	-10.2444
ũ	-10.2446
que	-10.2447
▁effect	-10.2454
▁artist	-10.2458
▁invent	-10.2476
▁cloud	-10.2489
▁ones	-10.2501
ah	-10.2503
▁rẻ	-10.2517
▁subject	-10.253
▁300	-10.2536
▁report	-10.2538
▁putting	-10.2539
▁mental	-10.2568
▁micro	-10.2571
▁sụ	-10.2576
▁phiế	-10.2599
▁emotion	-10.2601
▁lặng	-10.2614
▁function	-10.2623
▁sta	-10.2626
▁transform	-10.2648
▁flow	-10.2652
▁compassion	-10.2653
▁tool	-10.2664
▁rác	-10.2674
▁practice	-10.2682
▁wind	-10.2686
▁hùng	-10.2695
▁further	-10.2695
▁gas	-10.271
▁fit	-10.2729
▁represent	-10.2734
▁publish	-10.2736
▁necessar	-10.2736
▁concept	-10.2741
▁đắ	-10.2753
ood	-10.2757
▁fe	-10.2765
▁predict	-10.2775
▁crazy	-10.2778
▁trống	-10.278
▁mùi	-10.2783
ói	-10.2796
▁quang	-10.28
ếp	-10.2807
▁includ	-10.2813
▁require	-10.2818
▁ưu	-10.282
▁tròn	-10.2828
ite	-10.2854
▁blog	-10.2858
▁schools	-10.286
▁va	-10.2877
▁gene	-10.2877
▁thánh	-10.2892
ét	-10.2896
▁khô	-10.2897
hiệp	-10.2905
▁0	-10.2908
▁drug	-10.2923
▁results	-10.2924
▁visual	-10.2927
▁solar	-10.2934
▁choose	-10.2937
▁park	-10.294
▁female	-10.2947
▁plastic	-10.2947
▁throw	-10.2947
▁standard	-10.2949
▁shift	-10.2955
▁freedom	-10.299
▁vaccine	-10.299
▁amp	-10.2993
trao	-10.3008
▁ready	-10.3021
▁male	-10.3028
▁thác	-10.3029
▁đoàn	-10.3033
▁sốt	-10.3045
ab	-10.3046
▁ghé	-10.3048
▁math	-10.3048
▁doạ	-10.3057
▁pain	-10.3066
▁mar	-10.3066
▁bus	-10.3073
▁pe	-10.3075
▁mexico	-10.3076
▁surprise	-10.3076
▁software	-10.3076
ture	-10.3087
▁trial	-10.309
▁thừa	-10.3119
▁đẳng	-10.3121
▁skin	-10.3144
▁traditional	-10.3154
▁hắn	-10.3163
▁return	-10.3163
▁several	-10.3163
▁hu	-10.3166
ành	-10.317
▁đựng	-10.3175
▁onto	-10.3175
▁ball	-10.3182
ú	-10.3199
▁pop	-10.3204
▁genetic	-10.3206
▁extraordinar	-10.3207
▁adult	-10.3207
▁hoàng	-10.321
▁đam	-10.3216
ja	-10.3223
▁finding	-10.3237
▁wear	-10.325
▁đạp	-10.3252
▁treatment	-10.3253
▁son	-10.326
▁finish	-10.326
▁ả	-10.3263
▁quality	-10.3275
▁thang	-10.3276
▁dị	-10.3284
▁george	-10.3294
▁international	-10.3294
▁remain	-10.3294
▁canada	-10.3294
▁brother	-10.3296
▁role	-10.3305
▁sent	-10.3318
▁fine	-10.3323
▁pha	-10.3329
▁bù	-10.333
▁appear	-10.3338
▁context	-10.3339
▁worse	-10.3339
▁eventual	-10.3339
gu	-10.3343
▁luck	-10.3345
▁leaders	-10.3367
▁positive	-10.3391
au	-10.3418
ex	-10.3426
▁violence	-10.3428
▁visit	-10.3428
▁lược	-10.3434
▁computers	-10.3438
▁african	-10.3455
▁engineer	-10.3473
lar	-10.3499
▁mon	-10.3511
▁gt	-10.3512
▁faster	-10.3528
▁tật	-10.3528
▁forest	-10.3559
▁text	-10.3563
▁nhựa	-10.3563
▁chemical	-10.3563
▁gdp	-10.3563
▁price	-10.3564
▁mừng	-10.3565
▁fill	-10.3567
▁dad	-10.3567
▁dan	-10.3595
▁mai	-10.3601
▁progress	-10.3608
▁communities	-10.3608
▁immediate	-10.3608
▁ngoái	-10.3608
▁income	-10.3619
▁app	-10.3633
▁inter	-10.3646
▁central	-10.3654
▁expert	-10.3654
▁xứ	-10.3654
ily	-10.3664
sha	-10.3666
▁ngang	-10.367
▁lower	-10.3671
▁connected	-10.3675
▁mây	-10.37
▁cãi	-10.37
▁island	-10.37
how	-10.3703
▁bio	-10.3708
▁meeting	-10.3729
▁medicine	-10.3746
▁twitter	-10.3746
uỳ	-10.3761
▁thận	-10.3764
▁cú	-10.3767
▁hour	-10.3768
▁chặn	-10.3771
▁beat	-10.3779
men	-10.3781
▁surprising	-10.3792
▁lt	-10.3803
▁task	-10.3804
▁lesson	-10.3805
▁400	-10.3806
▁sal	-10.3808
▁aren	-10.3812
▁bacteria	-10.3818
▁xoá	-10.3839
▁nhuận	-10.3841
▁thầy	-10.3842
▁2000	-10.3857
▁famous	-10.3885
ner	-10.3887
▁lụ	-10.3888
▁mực	-10.3889
▁bảy	-10.3895
▁giảng	-10.3897
ượng	-10.3903
wi	-10.3906
qui	-10.3919
chi	-10.3925
▁mì	-10.3931
▁yên	-10.3932
▁window	-10.3933
▁huố	-10.3934
▁depend	-10.3935
▁board	-10.3936
▁grand	-10.3938
▁western	-10.3939
▁carry	-10.3943
▁chép	-10.3943
▁version	-10.3948
ở	-10.3957
▁wa	-10.3972
▁decisions	-10.398
▁bắn	-10.398
we	-10.398
▁haven	-10.3995
▁rise	-10.3999
▁drugs	-10.4007
▁poverty	-10.4027
▁mại	-10.4027
▁decision	-10.4027
▁police	-10.4027
▁typical	-10.4027
▁sổ	-10.4031
▁thao	-10.4034
▁diệt	-10.4036
▁minute	-10.4045
▁nhạ	-10.4046
▁foot	-10.4061
▁training	-10.4063
istic	-10.4074
▁einstein	-10.4075
▁financial	-10.4075
▁đùa	-10.4075
▁vú	-10.4077
▁kí	-10.4078
▁hương	-10.4081
▁mập	-10.4102
▁critical	-10.4105
▁flu	-10.4106
▁br	-10.4113
▁speed	-10.4123
▁ư	-10.4125
▁direction	-10.4126
▁path	-10.4126
▁khấu	-10.4129
iêu	-10.4134
▁kha	-10.4142
▁cr	-10.4153
▁mis	-10.4161
0,000	-10.4166
▁hư	-10.4171
▁hiếm	-10.4171
▁wild	-10.4172
ure	-10.4173
▁tràn	-10.4176
▁magic	-10.4211
led	-10.4213
▁agree	-10.4218
▁perspective	-10.4219
▁prevent	-10.4219
▁perform	-10.4219
▁vong	-10.4219
▁evolution	-10.4222
▁involve	-10.4224
▁tỏ	-10.4228
▁blind	-10.4266
▁washington	-10.4267
▁súng	-10.4267
▁gã	-10.4271
▁trade	-10.4274
rry	-10.4275
odies	-10.4292
▁ngu	-10.4304
ov	-10.4309
▁accept	-10.4316
▁crisis	-10.4316
▁remarkabl	-10.4316
▁earlie	-10.4318
gi	-10.4326
▁chán	-10.4329
▁photo	-10.4331
▁hoả	-10.4342
▁enjoy	-10.4365
▁ngọn	-10.4365
▁river	-10.4365
▁wife	-10.4365
▁đói	-10.4373
▁excited	-10.4374
▁supposed	-10.4376
▁reading	-10.4381
bility	-10.4392
▁lũ	-10.4396
xi	-10.44
ặp	-10.4407
und	-10.4414
▁tiêm	-10.4415
▁meant	-10.4419
▁qui	-10.442
▁apple	-10.4421
▁fi	-10.443
ã	-10.4442
▁cát	-10.4456
▁prison	-10.4457
hiến	-10.4458
à	-10.4459
▁đua	-10.4469
▁cứng	-10.4478
▁ám	-10.4489
▁cu	-10.4499
▁móc	-10.4516
▁serie	-10.4517
▁securit	-10.452
▁bom	-10.4525
▁sky	-10.4526
▁ham	-10.4536
▁khung	-10.4538
▁cold	-10.4545
▁triế	-10.4551
ists	-10.4553
▁interact	-10.4561
▁religion	-10.4564
▁liền	-10.4565
▁150	-10.4566
▁roll	-10.4576
▁warm	-10.4576
▁rập	-10.4577
▁improve	-10.4583
▁nu	-10.4591
▁gold	-10.4605
▁lừa	-10.4614
▁effort	-10.4614
▁charles	-10.4614
▁mix	-10.4615
▁impossibl	-10.4616
▁politic	-10.4625
▁pet	-10.4629
▁trào	-10.4631
▁leo	-10.4635
▁method	-10.4654
▁target	-10.4664
▁above	-10.4665
▁nobod	-10.468
▁higher	-10.4701
▁possibilit	-10.4715
▁exciting	-10.4715
▁expensive	-10.4715
▁alive	-10.4716
▁gỗ	-10.4717
▁thờ	-10.4723
▁robots	-10.4733
▁president	-10.4766
▁jump	-10.4766
▁bã	-10.4768
▁anyway	-10.4771
▁paint	-10.478
▁lành	-10.4803
▁teaching	-10.4804
▁wi	-10.4806
▁béo	-10.4817
▁bậc	-10.4818
▁dối	-10.4818
▁fa	-10.4824
▁á	-10.4848
▁hối	-10.4855
▁ạ	-10.4863
▁respond	-10.4869
▁rượu	-10.4869
▁smell	-10.4869
▁bunch	-10.4869
▁solutions	-10.4876
▁environmental	-10.4879
▁foundation	-10.4881
▁drop	-10.4899
▁mạc	-10.4915
▁purpose	-10.4921
▁daughter	-10.4921
▁weight	-10.4948
▁famili	-10.4971
▁fantastic	-10.4973
▁đảng	-10.4973
▁argument	-10.4974
▁brand	-10.4974
ước	-10.4975
▁cỗ	-10.4976
▁familiar	-10.498
▁emotional	-10.4987
▁skills	-10.4994
▁neurons	-10.5004
ship	-10.5025
▁museum	-10.5025
▁policy	-10.5025
▁nigeria	-10.5025
▁ngón	-10.5026
▁hỗn	-10.5032
▁race	-10.5036
▁humanity	-10.5044
ray	-10.5058
▁products	-10.5064
▁gà	-10.5069
uc	-10.5075
▁concern	-10.508
bby	-10.5083
▁bổ	-10.5086
▁thuyền	-10.5088
▁societies	-10.5089
▁căng	-10.5104
ium	-10.5109
ft	-10.5111
▁sat	-10.5116
like	-10.5119
▁adn	-10.5128
▁wide	-10.5129
▁straight	-10.5131
▁2008	-10.5132
refore	-10.5134
▁shark	-10.5135
▁slight	-10.5137
▁institution	-10.5141
ệ	-10.5183
uấn	-10.5184
▁ultimate	-10.5184
▁afford	-10.5184
▁extra	-10.5184
▁côn	-10.5187
▁saving	-10.5188
▁cỏ	-10.5188
▁check	-10.5189
▁mét	-10.5191
▁joe	-10.5193
uck	-10.5197
▁sexual	-10.5202
▁decide	-10.5212
▁mc	-10.5213
▁nha	-10.522
▁adam	-10.5239
▁ngưỡng	-10.5239
▁massive	-10.5248
▁larger	-10.526
▁mộ	-10.5263
▁vote	-10.5268
▁total	-10.527
▁none	-10.5285
▁colleague	-10.5291
▁random	-10.5291
▁babies	-10.5291
▁dangerous	-10.5292
▁interaction	-10.5294
▁card	-10.5297
▁gay	-10.5327
é	-10.5329
▁óc	-10.533
▁sad	-10.5333
▁constant	-10.5345
ăng	-10.5348
▁architecture	-10.5349
▁survive	-10.5352
▁camp	-10.5353
▁serious	-10.537
ier	-10.5372
tan	-10.5375
í	-10.5386
▁press	-10.5388
ston	-10.5393
▁reduce	-10.5398
▁wood	-10.5399
▁ức	-10.54
▁táo	-10.5406
▁glass	-10.5409
▁ác	-10.5411
ities	-10.5415
▁gu	-10.542
omas	-10.5424
▁rid	-10.5436
▁involv	-10.5449
▁element	-10.5454
▁temperature	-10.5454
▁nút	-10.5454
▁thọ	-10.5468
▁lù	-10.5468
▁ki	-10.5468
▁smaller	-10.5493
▁explore	-10.5503
▁multi	-10.5507
▁except	-10.5507
▁breath	-10.5509
▁beauty	-10.5509
▁invite	-10.551
▁shar	-10.5524
▁dư	-10.5536
▁mũi	-10.5538
▁thuậ	-10.5543
ồng	-10.5544
▁kho	-10.5554
▁rule	-10.5557
▁dance	-10.5558
▁complicated	-10.5565
▁tissue	-10.5565
▁address	-10.5565
▁spot	-10.5565
▁motor	-10.5566
▁career	-10.5572
▁biệ	-10.5576
▁mồ	-10.5581
hiếp	-10.5583
▁writ	-10.5589
ẩu	-10.56
tally	-10.5611
▁types	-10.5615
▁increasing	-10.562
▁mobile	-10.562
▁identit	-10.562
▁launch	-10.562
▁summer	-10.562
▁forget	-10.562
▁biology	-10.562
▁funny	-10.5621
▁painting	-10.5624
ze	-10.5626
▁bread	-10.5627
▁signal	-10.5628
▁communication	-10.5629
▁cultural	-10.563
▁brains	-10.564
▁ju	-10.5641
light	-10.5641
▁mr	-10.5661
▁respect	-10.5674
▁35	-10.5675
▁shock	-10.5676
▁german	-10.5676
▁zero	-10.5677
▁trick	-10.5691
▁den	-10.5698
▁tỉnh	-10.5701
▁original	-10.5709
▁bọ	-10.5714
▁bone	-10.5722
▁frank	-10.573
▁truy	-10.5732
▁nhũng	-10.5732
▁unfortunate	-10.5732
▁terribl	-10.5732
▁chair	-10.5742
▁anywhere	-10.5744
▁mi	-10.5744
▁active	-10.5753
▁ja	-10.5756
mer	-10.5763
ô	-10.5771
▁legs	-10.5783
▁trứng	-10.5789
▁virtual	-10.5789
▁unique	-10.5789
▁xong	-10.5789
▁enter	-10.5789
▁electricity	-10.579
▁production	-10.5794
▁lang	-10.58
▁rủ	-10.5801
▁đài	-10.5804
▁shot	-10.5807
▁machines	-10.5811
▁ven	-10.5829
▁fold	-10.5831
▁creativity	-10.5845
▁urban	-10.5845
▁influence	-10.5847
▁gps	-10.5848
▁mò	-10.5848
▁túc	-10.5853
▁cat	-10.5855
▁speech	-10.5861
▁release	-10.5862
▁invest	-10.5885
▁ngự	-10.589
ark	-10.5895
▁compare	-10.5898
▁researcher	-10.5898
▁birth	-10.5899
▁separate	-10.5903
▁television	-10.5903
▁gọn	-10.5903
▁miss	-10.5903
▁te	-10.5908
▁ten	-10.591
▁engine	-10.5916
len	-10.5919
▁remind	-10.5919
▁rain	-10.5952
▁genes	-10.5957
▁station	-10.5968
▁tò	-10.5971
▁feed	-10.5973
▁poet	-10.5976
▁match	-10.5983
óm	-10.5988
▁thiểu	-10.5996
ise	-10.6001
▁pakistan	-10.6018
▁principle	-10.6018
▁surgery	-10.6018
▁trouble	-10.6018
▁interview	-10.6018
▁shared	-10.6019
▁conference	-10.6021
▁mạo	-10.6021
▁stopp	-10.6026
▁achieve	-10.6067
▁heat	-10.6067
ười	-10.6069
ible	-10.6073
▁cột	-10.6076
▁vườn	-10.6076
▁crime	-10.6076
▁performance	-10.6077
▁fuel	-10.6077
ật	-10.6082
▁huy	-10.6085
▁45	-10.6086
▁cook	-10.6087
▁twi	-10.611
ởi	-10.6134
▁tia	-10.6134
▁youtube	-10.6135
ram	-10.6139
▁gain	-10.6165
▁pm	-10.6175
▁prove	-10.619
▁detail	-10.6191
▁creature	-10.6193
▁belief	-10.6193
▁dày	-10.6193
▁honest	-10.6193
▁instance	-10.6193
▁miền	-10.6194
▁dec	-10.6195
▁bomb	-10.6196
▁mention	-10.6197
▁thạch	-10.6198
▁moon	-10.62
▁75	-10.621
▁giận	-10.6211
▁propert	-10.6222
▁decades	-10.6222
nder	-10.6224
▁party	-10.6235
▁accident	-10.6252
▁campaign	-10.6253
▁michael	-10.6253
▁popular	-10.6253
▁truyện	-10.6253
▁demand	-10.6253
▁floor	-10.6254
▁spin	-10.6263
▁engineering	-10.6264
▁phán	-10.6267
▁basi	-10.6274
▁cụt	-10.6285
izing	-10.6304
▁chừ	-10.6305
▁fan	-10.631
▁advance	-10.6312
▁failure	-10.6313
▁pu	-10.6316
▁forth	-10.6326
▁underst	-10.6332
▁đắn	-10.6343
▁fat	-10.6343
▁king	-10.635
▁farm	-10.6356
▁mad	-10.636
though	-10.6365
▁ear	-10.6366
▁indian	-10.637
▁làng	-10.6376
▁sensor	-10.6376
▁significant	-10.638
▁speaking	-10.6381
▁hell	-10.6385
▁arab	-10.6396
berg	-10.6411
av	-10.643
▁military	-10.6432
▁studio	-10.6432
▁hồn	-10.6433
▁dọc	-10.6435
▁partner	-10.6437
▁birds	-10.6441
▁useful	-10.6442
▁industrial	-10.6443
▁link	-10.6444
▁xô	-10.6454
▁nơ	-10.6456
▁range	-10.6471
▁vả	-10.6479
▁khiếp	-10.648
▁bạc	-10.6487
▁express	-10.649
▁lộn	-10.6492
▁coffee	-10.6493
▁traffic	-10.6493
▁mission	-10.6496
▁xưa	-10.6496
▁relative	-10.6499
ble	-10.6516
▁răng	-10.6518
ative	-10.6524
bb	-10.6526
▁cản	-10.6531
▁convince	-10.6554
▁huyết	-10.6554
▁laptop	-10.6554
▁private	-10.6554
▁etc	-10.6555
▁worker	-10.6564
hand	-10.6566
▁mát	-10.6571
▁citizens	-10.6587
▁apply	-10.6593
▁kiên	-10.6595
▁pat	-10.6611
▁iphone	-10.6615
▁richard	-10.6617
▁xạ	-10.6623
▁haiti	-10.6627
20	-10.663
ki	-10.6631
▁mĩ	-10.6635
▁len	-10.6635
▁bear	-10.6635
▁thiệp	-10.6636
▁plann	-10.6642
▁recent	-10.6649
▁walked	-10.6659
▁phó	-10.6659
▁burn	-10.6661
▁2010	-10.6677
▁insect	-10.6677
▁intelligence	-10.6677
▁vehicle	-10.6677
▁click	-10.6677
▁nhỉ	-10.6678
▁edge	-10.6678
ought	-10.6694
▁10,000	-10.6696
▁vàng	-10.6698
rin	-10.6729
pro	-10.6738
▁rưỡi	-10.6739
▁wave	-10.676
▁master	-10.6766
kept	-10.6766
hỉnh	-10.6769
á	-10.6771
▁chẩ	-10.6779
▁rồ	-10.678
▁bin	-10.6783
▁sam	-10.6784
▁mor	-10.6787
▁yo	-10.6791
▁miệng	-10.6801
▁phenomen	-10.6801
▁robert	-10.6801
▁wealth	-10.6802
▁nuclear	-10.6802
▁afr	-10.6805
▁bridge	-10.6808
▁gan	-10.6825
end	-10.6858
art	-10.6867
▁lẻ	-10.6873
▁fix	-10.688
ff	-10.6881
▁net	-10.6882
▁khóc	-10.6886
ization	-10.6891
▁aid	-10.6895
off	-10.6908
▁minds	-10.6913
▁town	-10.6914
▁willing	-10.6915
▁jer	-10.6921
▁civil	-10.6926
▁physics	-10.6928
▁tặng	-10.6928
▁ấm	-10.6928
▁đĩa	-10.6928
▁sample	-10.6928
▁sister	-10.6931
lan	-10.6936
▁corner	-10.6937
▁generate	-10.6946
▁nano	-10.6961
ực	-10.6962
▁highly	-10.6978
▁serve	-10.6986
▁worry	-10.6991
▁brown	-10.6991
▁hước	-10.6994
▁aware	-10.6996
▁passion	-10.6997
▁gương	-10.7006
▁ổ	-10.7016
▁communicate	-10.702
▁chip	-10.7031
▁har	-10.7041
▁landscape	-10.7055
▁trộn	-10.7055
▁charge	-10.7056
▁anti	-10.7075
▁hacker	-10.7076
▁drawing	-10.7078
▁quê	-10.7079
oo	-10.7081
▁dog	-10.7084
▁bla	-10.7098
▁document	-10.7101
▁hố	-10.7102
▁jame	-10.7104
rg	-10.7119
▁dính	-10.712
▁galax	-10.712
▁technique	-10.712
▁neighborhood	-10.712
let	-10.7121
▁election	-10.7121
▁joy	-10.7125
▁bạch	-10.7126
▁tóc	-10.7128
▁23	-10.7136
▁wire	-10.7152
use	-10.7157
▁define	-10.7169
ờ	-10.7175
▁professor	-10.7185
▁double	-10.7185
▁classroom	-10.7185
êm	-10.7192
▁lỏng	-10.7195
▁dere	-10.7202
ping	-10.7206
▁tám	-10.7211
▁stars	-10.7224
▁apart	-10.7225
▁destroy	-10.725
▁đớn	-10.725
▁profound	-10.725
▁driving	-10.7251
ina	-10.7253
▁mãn	-10.7254
▁complexity	-10.7255
▁tí	-10.7255
▁laugh	-10.7257
▁lão	-10.7261
▁hẹn	-10.7266
ory	-10.7269
cra	-10.728
rit	-10.7302
car	-10.7303
ide	-10.7303
of	-10.7307
▁breast	-10.7316
▁leadership	-10.7316
▁reward	-10.7318
▁tedx	-10.7326
rate	-10.7337
▁scientist	-10.7343
▁pen	-10.735
gone	-10.7364
not	-10.7368
▁harvard	-10.7382
▁genome	-10.7382
▁drink	-10.7382
▁password	-10.7382
▁various	-10.7382
▁collective	-10.7382
▁option	-10.7383
▁phổi	-10.7385
▁meter	-10.7386
▁flower	-10.7387
▁trăng	-10.7387
ically	-10.7388
▁wow	-10.7389
▁inspired	-10.7393
▁correct	-10.7393
▁ngầm	-10.7397
▁trú	-10.7407
▁bột	-10.741
▁cốc	-10.7414
ịch	-10.7432
▁diet	-10.7433
▁cycle	-10.7435
▁introduce	-10.7437
▁lô	-10.7439
wise	-10.7439
paid	-10.7447
▁darwin	-10.7449
▁hằng	-10.7455
▁cường	-10.746
▁chợ	-10.7464
▁era	-10.7469
▁nasa	-10.7473
▁gri	-10.7488
▁bra	-10.7512
▁enormous	-10.7516
▁husband	-10.7516
▁instrument	-10.7516
▁root	-10.7516
▁damage	-10.7516
▁sentence	-10.7517
▁quí	-10.7517
▁vuông	-10.7518
▁99	-10.7518
▁đậu	-10.7522
▁catch	-10.7547
▁argue	-10.7553
ious	-10.7555
▁graph	-10.7559
▁ge	-10.7562
▁gun	-10.7565
ọc	-10.7566
ade	-10.7567
▁networks	-10.7575
▁smith	-10.7584
▁obama	-10.7584
▁fellow	-10.7584
▁tuệ	-10.7584
▁gather	-10.7585
▁dying	-10.7591
▁fashion	-10.7593
cent	-10.7598
▁print	-10.7618
▁decade	-10.7618
▁universal	-10.7652
▁worst	-10.7652
▁paris	-10.7652
▁investment	-10.7654
▁ngã	-10.7655
▁careful	-10.7655
▁thoảng	-10.7656
▁professional	-10.7658
▁hạng	-10.7661
▁sch	-10.7673
eath	-10.7687
ả	-10.7698
▁surviv	-10.77
▁mars	-10.7709
▁arrive	-10.772
▁supply	-10.772
▁weapon	-10.772
▁avoid	-10.772
▁expression	-10.7723
▁rô	-10.775
ica	-10.7756
▁flying	-10.7757
ches	-10.7761
▁bá	-10.7764
aker	-10.7769
▁pr	-10.7788
▁disappear	-10.7789
▁foreign	-10.7789
▁tuyết	-10.7789
▁balance	-10.7789
▁yellow	-10.7789
▁bubble	-10.7789
▁lunch	-10.7789
▁capture	-10.779
ì	-10.78
har	-10.782
▁pho	-10.7824
▁capital	-10.7826
▁possibl	-10.7847
▁threat	-10.785
▁litera	-10.786
▁mess	-10.786
▁lay	-10.7864
▁nga	-10.7866
ick	-10.7898
▁vắc	-10.7898
ria	-10.7906
ember	-10.7913
ò	-10.7919
▁artists	-10.7922
▁missing	-10.7926
▁capacity	-10.7928
▁hứa	-10.7928
▁hurt	-10.7929
▁stem	-10.793
▁radical	-10.7937
▁vast	-10.7946
▁fr	-10.7971
▁character	-10.7972
▁evolve	-10.7983
▁rough	-10.7988
▁mountain	-10.7991
▁airplane	-10.7999
▁algorithm	-10.7999
▁magazine	-10.7999
▁strength	-10.7999
▁nướng	-10.8002
▁hall	-10.8003
▁fo	-10.8004
▁streets	-10.8006
ầy	-10.8006
fe	-10.8009
▁thanks	-10.8017
▁cong	-10.8025
▁bag	-10.8039
▁tươ	-10.8041
▁giày	-10.805
lic	-10.8066
▁wikipedia	-10.807
▁desire	-10.807
▁distance	-10.807
▁dramatic	-10.807
▁imagination	-10.8071
▁2007	-10.8071
ảy	-10.8094
▁operat	-10.8096
hải	-10.8106
▁imp	-10.8109
▁para	-10.8135
▁circle	-10.8141
▁commercial	-10.8141
▁component	-10.8141
▁martin	-10.8141
▁gift	-10.8143
▁22	-10.8149
▁chăng	-10.8156
▁driver	-10.8156
▁chai	-10.8164
▁hoại	-10.8165
▁scan	-10.8172
▁layer	-10.8179
▁cự	-10.8203
nic	-10.8203
▁dạ	-10.8203
▁cry	-10.8206
▁ship	-10.8211
▁associate	-10.8213
▁department	-10.8213
▁article	-10.8213
▁lưng	-10.8213
▁oxygen	-10.8213
▁quà	-10.8214
▁mil	-10.8218
▁trần	-10.8221
▁cur	-10.8221
▁justice	-10.8223
ốt	-10.8237
huyền	-10.824
▁steve	-10.8242
▁gra	-10.8256
▁port	-10.828
▁xí	-10.8284
▁autism	-10.8286
▁responsibilit	-10.8286
▁francisco	-10.8286
▁corruption	-10.8286
▁patent	-10.8287
▁divide	-10.8295
▁nho	-10.8297
▁core	-10.8323
▁gạ	-10.8332
▁jan	-10.8344
▁mid	-10.835
night	-10.8351
▁opportunit	-10.8352
▁neighbor	-10.8359
▁ancient	-10.8359
▁australia	-10.8359
▁dynamic	-10.8359
▁economist	-10.8359
▁switch	-10.8359
▁opposite	-10.8359
▁horse	-10.8359
▁pressure	-10.8359
▁consciousness	-10.836
▁clip	-10.8366
▁op	-10.8366
▁trà	-10.8367
▁dollar	-10.8368
▁colon	-10.8376
▁nét	-10.838
▁asia	-10.8384
▁hill	-10.8386
▁peter	-10.8387
▁tough	-10.8402
▁receive	-10.8404
▁realiz	-10.8421
▁expand	-10.8432
▁nobel	-10.8432
▁coast	-10.8432
▁bottle	-10.8433
▁phì	-10.8434
▁unlike	-10.8435
▁mẻ	-10.8445
▁sur	-10.8455
▁note	-10.8458
van	-10.8461
▁bụng	-10.8462
▁hol	-10.8467
▁dimension	-10.8473
▁hate	-10.848
▁ngo	-10.8481
▁lung	-10.8481
than	-10.8481
▁hearing	-10.8486
▁bor	-10.8489
▁fac	-10.8498
▁quái	-10.8503
▁application	-10.8506
▁oxytocin	-10.8506
▁whale	-10.8506
▁remove	-10.8506
▁tribe	-10.8507
▁equip	-10.8508
▁gói	-10.8512
▁pack	-10.8516
▁rem	-10.8517
▁crowd	-10.8522
▁lock	-10.8524
▁dán	-10.8531
▁sustainabl	-10.8562
▁chả	-10.8572
ama	-10.8575
▁encourage	-10.8581
▁infrastructure	-10.8581
▁manufactur	-10.8581
▁biological	-10.8581
▁british	-10.8581
▁hỏng	-10.8586
▁tung	-10.8589
▁lack	-10.859
▁giơ	-10.859
▁hair	-10.8596
▁limit	-10.8606
▁vá	-10.862
▁logic	-10.8629
▁cụm	-10.8636
▁grade	-10.8645
▁mouth	-10.8656
▁ngon	-10.8658
▁operation	-10.8659
▁ron	-10.866
▁prize	-10.8662
▁dot	-10.8663
▁quote	-10.8676
▁quán	-10.8679
▁bell	-10.8694
▁pal	-10.8695
state	-10.8704
▁metaphor	-10.8732
▁french	-10.8732
▁despi	-10.8732
▁lề	-10.8734
▁gap	-10.8736
▁compar	-10.8738
▁bush	-10.8744
cious	-10.8744
▁band	-10.8752
▁giấu	-10.8756
▁lệnh	-10.877
ố	-10.877
▁loss	-10.8781
▁cl	-10.8788
▁talks	-10.8789
▁contain	-10.879
▁tân	-10.8792
igger	-10.8798
▁struggle	-10.8798
▁tị	-10.8802
▁sector	-10.8808
▁tiệc	-10.8808
▁climb	-10.8808
▁garden	-10.8808
▁tĩnh	-10.8808
▁civilization	-10.8808
▁organism	-10.8809
▁toilet	-10.8809
▁flight	-10.8809
▁european	-10.8811
binh	-10.8811
▁members	-10.8813
ỏ	-10.8815
▁controll	-10.8828
▁sàn	-10.883
▁author	-10.8843
▁bụ	-10.8849
▁engage	-10.8862
▁detect	-10.8875
▁cheap	-10.8877
tz	-10.888
▁architect	-10.8884
▁newspaper	-10.8885
▁honor	-10.8885
▁finger	-10.8886
▁tháp	-10.8887
▁battle	-10.8888
▁consumer	-10.8889
▁golf	-10.8897
ice	-10.8899
well	-10.8917
▁degrees	-10.8923
▁vu	-10.893
▁stream	-10.8943
▁1990	-10.8963
▁consequence	-10.8963
▁tremendous	-10.8963
▁background	-10.8966
▁sick	-10.8972
han	-10.8978
▁broken	-10.8987
▁buôn	-10.9006
ala	-10.9025
gh	-10.9027
▁hàm	-10.9031
▁legal	-10.9034
aught	-10.9035
▁lặn	-10.9037
board	-10.904
▁amazon	-10.9041
▁restaurant	-10.9041
▁location	-10.9041
▁atmosphere	-10.9042
▁angeles	-10.9044
▁emerg	-10.9051
▁bão	-10.9059
▁forever	-10.9061
hen	-10.9073
▁edi	-10.9076
▁promise	-10.9092
▁rob	-10.9107
▁statistics	-10.9109
▁cartoon	-10.9114
ko	-10.9115
quang	-10.9118
▁scene	-10.9119
▁symbol	-10.9119
▁reveal	-10.9119
▁round	-10.912
▁pair	-10.9121
▁tube	-10.9121
▁dược	-10.9122
▁broad	-10.914
ó	-10.9146
▁atom	-10.9163
meter	-10.9193
▁produc	-10.9199
▁advantage	-10.9199
▁definition	-10.9199
▁dứt	-10.9199
▁remote	-10.9199
▁responsibl	-10.9199
▁wisdom	-10.9199
▁tumor	-10.9199
▁rapid	-10.9199
▁select	-10.92
▁reaction	-10.9201
▁agenc	-10.9201
ball	-10.9217
▁blow	-10.9233
▁cla	-10.9237
▁mờ	-10.9238
▁shoes	-10.9253
▁fully	-10.9265
▁row	-10.9271
▁ngọt	-10.9279
▁latin	-10.9279
▁hopeful	-10.9282
▁phiền	-10.9283
▁labor	-10.9287
term	-10.9295
▁sữa	-10.9298
ụ	-10.9305
▁1,000	-10.9307
▁shop	-10.9313
▁thoá	-10.9315
oid	-10.9321
▁cúm	-10.9324
▁date	-10.9327
▁vò	-10.9339
▁photos	-10.9347
▁kẹ	-10.935
▁trốn	-10.9355
▁alzheimer	-10.9359
▁manhattan	-10.9359
▁perception	-10.9359
▁creation	-10.936
▁claim	-10.936
▁nurse	-10.936
ograph	-10.936
▁demo	-10.9364
▁rio	-10.9367
▁according	-10.9367
ult	-10.9368
▁noise	-10.9368
pu	-10.937
▁trưa	-10.937
▁chìm	-10.9371
▁insight	-10.9378
▁cave	-10.9381
tain	-10.9395
▁khỉ	-10.9398
istan	-10.9402
▁ya	-10.9406
▁topic	-10.9408
unk	-10.9408
▁suffering	-10.9412
▁seat	-10.9436
▁lau	-10.9438
▁brilliant	-10.9441
▁ecosystem	-10.9441
▁muslim	-10.9441
▁mệnh	-10.9441
▁negative	-10.9441
▁court	-10.9441
▁higg	-10.9441
▁contact	-10.9441
▁outcome	-10.9441
▁fl	-10.945
▁eric	-10.9454
▁muỗi	-10.9454
▁tradition	-10.9457
ỗ	-10.9461
▁daily	-10.9464
▁trend	-10.947
▁evolv	-10.9473
▁cấm	-10.9493
ably	-10.9506
▁leg	-10.9514
▁japan	-10.9523
▁awesome	-10.9523
▁marriage	-10.9523
▁worldwide	-10.9523
▁dinner	-10.9523
▁recover	-10.9523
▁combine	-10.9524
▁thuế	-10.9526
▁lậ	-10.9526
▁parent	-10.9534
▁tủ	-10.9534
▁due	-10.9536
▁reflect	-10.954
▁bớ	-10.954
▁invisible	-10.9557
▁meat	-10.956
▁khoan	-10.9562
▁tour	-10.9563
▁copy	-10.9577
▁đự	-10.9587
▁metal	-10.9596
uyển	-10.9601
▁wal	-10.9604
▁2005	-10.9607
▁include	-10.962
▁lăn	-10.9626
▁suffer	-10.9635
▁rét	-10.9648
▁puzzle	-10.9663
▁plane	-10.967
over	-10.9674
▁notion	-10.9679
▁happi	-10.9687
▁regular	-10.9689
▁feature	-10.9689
▁smile	-10.9689
▁japanese	-10.9689
▁employee	-10.9689
▁sugar	-10.9689
diversity	-10.9694
▁ngắm	-10.9699
▁dáng	-10.9715
▁killing	-10.9723
▁dry	-10.9724
▁ngư	-10.9745
▁kar	-10.9765
▁bầ	-10.9769
▁spirit	-10.9773
▁strategy	-10.9773
▁chicken	-10.9773
▁telescope	-10.9773
▁church	-10.9773
▁analys	-10.9773
▁gates	-10.9774
▁nàng	-10.9775
▁transformation	-10.9777
▁ideal	-10.9781
▁enable	-10.9783
lb	-10.9789
▁deeply	-10.9796
▁spaces	-10.9808
▁fascinating	-10.981
▁marketing	-10.9813
▁cậ	-10.9819
▁graduate	-10.9828
rma	-10.9833
▁xinh	-10.9838
▁writer	-10.9847
uel	-10.9849
▁stone	-10.985
▁197	-10.9851
▁chicago	-10.9857
▁error	-10.9857
▁particle	-10.9858
▁circuit	-10.9858
▁william	-10.9858
▁transition	-10.9858
▁childhood	-10.9859
▁politician	-10.9859
older	-10.9862
▁trip	-10.9866
▁designer	-10.9869
▁pole	-10.9871
ham	-10.9878
▁nọ	-10.9892
dimensional	-10.9895
ẽ	-10.9911
▁heo	-10.9922
▁úc	-10.9922
▁discovery	-10.9923
▁gián	-10.9938
▁kị	-10.9942
▁competition	-10.9943
▁previous	-10.9943
▁hidden	-10.9943
▁trượt	-10.9944
▁mouse	-10.9944
rous	-10.9944
▁stuck	-10.9944
▁chain	-10.9945
ther	-10.9955
▁fer	-10.9957
ổ	-10.9964
▁đậ	-10.9972
▁actor	-10.9976
▁grown	-10.9979
▁ep	-10.9994
▁related	-10.9997
hăng	-11.001
▁gố	-11.002
▁bồ	-11.0024
▁bed	-11.0024
▁memori	-11.0028
▁identify	-11.0029
▁rwanda	-11.0029
▁fresh	-11.0029
▁thám	-11.0029
▁score	-11.0029
▁technical	-11.0029
▁comment	-11.0029
▁interface	-11.0029
▁display	-11.0029
▁talent	-11.003
▁novel	-11.003
▁1970	-11.003
▁cognitive	-11.003
▁bees	-11.0032
▁nốt	-11.0035
▁democratic	-11.0037
met	-11.0039
▁tướng	-11.0041
▁knowing	-11.0052
▁electrical	-11.0058
versus	-11.0059
▁hàn	-11.006
▁receiv	-11.0063
▁xà	-11.0063
▁ski	-11.0084
▁hop	-11.0084
▁continu	-11.0087
▁users	-11.0088
▁sum	-11.0099
▁cuộ	-11.0103
▁khớp	-11.0116
▁volunteer	-11.0116
▁proud	-11.0116
▁collapse	-11.0117
▁weird	-11.0117
đ	-11.0124
▁bike	-11.0124
▁phú	-11.0142
▁hans	-11.0144
▁mri	-11.015
▁hip	-11.0154
▁robotic	-11.0162
ttle	-11.0166
▁giant	-11.0166
▁laws	-11.017
▁sequence	-11.0172
life	-11.0172
▁authorit	-11.0177
▁sung	-11.0184
▁speaker	-11.019
▁effects	-11.0191
base	-11.0199
▁27	-11.0202
▁caus	-11.0202
▁silicon	-11.0204
▁illness	-11.0204
▁jim	-11.0205
▁jack	-11.0205
▁marrie	-11.0208
▁coca	-11.021
▁collection	-11.0211
▁matters	-11.0221
ỷ	-11.0234
▁integrat	-11.024
▁tony	-11.0242
uff	-11.0249
▁letter	-11.0254
▁sơn	-11.0257
▁je	-11.0266
▁kín	-11.027
▁cow	-11.0277
▁attempt	-11.0292
▁mechanism	-11.0292
▁narrative	-11.0292
▁grandmother	-11.0292
▁faith	-11.0292
▁depression	-11.0294
ail	-11.0298
▁ngập	-11.0312
▁carrie	-11.0313
▁profit	-11.0314
pping	-11.0355
ồ	-11.0363
▁cent	-11.0376
▁bơ	-11.0376
▁bur	-11.0378
▁artificial	-11.0382
▁dictionar	-11.0382
▁opinion	-11.0382
▁categor	-11.0382
▁channel	-11.0382
▁minister	-11.0382
▁assume	-11.0383
▁lướt	-11.0383
▁construction	-11.0384
▁thua	-11.0385
▁facilit	-11.0388
▁pan	-11.0397
▁hồng	-11.0404
etic	-11.0409
▁rãi	-11.0409
ification	-11.0416
▁hero	-11.042
▁tens	-11.0429
▁farmers	-11.0438
ẳng	-11.0439
▁nhẫn	-11.0472
▁origami	-11.0472
▁tomorrow	-11.0472
▁england	-11.0472
▁tuý	-11.0472
▁1960	-11.0472
▁estimate	-11.0475
▁milk	-11.0477
▁musician	-11.0477
▁infect	-11.0479
▁efficient	-11.0493
▁châm	-11.0496
▁voices	-11.05
kin	-11.0501
▁dá	-11.0505
▁tha	-11.0512
ừng	-11.0523
ế	-11.0526
▁mũ	-11.0527
ward	-11.0529
tric	-11.054
▁củ	-11.055
▁feels	-11.0552
▁tea	-11.0555
▁mạn	-11.0558
▁tail	-11.0558
▁khôn	-11.0562
▁aspect	-11.0563
▁platform	-11.0563
▁piano	-11.0563
▁budget	-11.0563
▁malaria	-11.0563
▁uncle	-11.0563
▁ladies	-11.0563
▁feedback	-11.0563
▁leaving	-11.0563
▁95	-11.0564
▁odd	-11.0564
▁lông	-11.0564
▁official	-11.0565
▁precise	-11.0565
▁lady	-11.0565
▁600	-11.0567
▁2,000	-11.0573
▁wheel	-11.0574
▁xóm	-11.0577
▁65	-11.0592
▁rau	-11.0606
ese	-11.0622
ẹ	-11.0627
▁congo	-11.0644
▁beach	-11.0647
▁rap	-11.0651
ưỡng	-11.0653
▁epidemic	-11.0654
▁exercise	-11.0654
▁ordinar	-11.0654
▁desert	-11.0654
▁phạt	-11.0654
▁snow	-11.0654
▁entertain	-11.0655
▁tháo	-11.0658
▁ngốc	-11.0662
▁100,000	-11.0665
▁therap	-11.0666
▁chart	-11.0667
▁spring	-11.0686
verse	-11.0688
ớt	-11.0688
▁electronic	-11.069
▁practical	-11.0692
▁mal	-11.0696
▁thính	-11.0702
▁proper	-11.0704
▁nhãn	-11.0705
▁truck	-11.0716
lock	-11.073
▁discuss	-11.0744
▁provid	-11.0744
▁adapt	-11.0745
▁disorder	-11.0747
▁vây	-11.0747
▁survey	-11.0747
▁extract	-11.0748
▁passionate	-11.0748
▁quạ	-11.0749
▁mt	-11.0755
▁nở	-11.0757
▁sir	-11.0761
▁frame	-11.0765
▁hầm	-11.0767
▁chose	-11.0769
▁stock	-11.0774
ư	-11.0779
ku	-11.078
▁translate	-11.0787
ể	-11.0805
▁limited	-11.0807
▁measur	-11.0812
ủ	-11.0816
▁leader	-11.0822
▁lò	-11.0822
net	-11.0835
▁tweet	-11.084
▁evil	-11.084
▁worri	-11.084
▁knee	-11.0841
cola	-11.0843
▁drone	-11.0848
▁vở	-11.0867
▁swim	-11.0885
▁khé	-11.0886
▁seriously	-11.0892
uk	-11.0893
▁organic	-11.0895
▁henr	-11.0895
▁letters	-11.0906
▁losing	-11.092
▁relation	-11.0935
▁pleasure	-11.0935
▁debate	-11.0935
▁laser	-11.094
▁ride	-11.095
▁operate	-11.0954
▁mac	-11.0957
▁min	-11.0958
án	-11.0981
▁degree	-11.0983
chìa	-11.0983
▁independent	-11.0985
▁spoke	-11.0987
ớ	-11.0998
▁par	-11.1008
ạo	-11.101
▁clinical	-11.1011
▁phái	-11.1017
▁cru	-11.1022
▁bốt	-11.1027
▁disaster	-11.103
▁sweet	-11.103
▁đuôi	-11.103
▁rural	-11.103
▁bút	-11.103
▁string	-11.103
▁peak	-11.1031
▁judge	-11.1031
▁rocket	-11.1032
▁2004	-11.1033
▁bright	-11.1041
▁determine	-11.1043
work	-11.1044
▁suit	-11.1045
▁highest	-11.1046
▁lát	-11.1047
▁toả	-11.1069
gie	-11.1099
▁solv	-11.1109
▁thô	-11.1117
▁conscious	-11.1125
▁attract	-11.1126
▁fiction	-11.1126
▁pocket	-11.1126
▁monkey	-11.1126
▁succeed	-11.1126
▁accurate	-11.1126
▁dress	-11.1127
▁nhở	-11.1129
▁2006	-11.1129
▁eva	-11.1132
▁quát	-11.1147
▁ngực	-11.1152
▁nhá	-11.1161
▁sustain	-11.1164
cha	-11.1167
ana	-11.1186
▁pri	-11.1188
▁giam	-11.1194
ạp	-11.1194
▁replace	-11.1213
▁solid	-11.1224
▁cup	-11.1226
▁theater	-11.1226
▁multiple	-11.1228
▁hum	-11.1243
▁react	-11.125
▁250	-11.1261
93	-11.1263
▁surround	-11.1267
▁grid	-11.1274
▁1000	-11.129
▁tho	-11.1293
▁mothers	-11.1296
ologist	-11.1307
oma	-11.131
▁trans	-11.1321
▁ignore	-11.1321
▁mirror	-11.1321
▁nắng	-11.1321
▁pizza	-11.1321
▁awful	-11.1321
▁alternative	-11.1321
▁boat	-11.1322
▁reform	-11.1323
▁distribution	-11.1324
▁invention	-11.1328
▁bế	-11.1337
port	-11.1348
▁rung	-11.1353
▁taste	-11.1354
ưu	-11.1358
▁journalist	-11.1378
▁hat	-11.1382
▁harder	-11.1389
▁aging	-11.1392
▁obsess	-11.142
▁satellite	-11.142
▁yemen	-11.142
▁shame	-11.1421
▁valley	-11.1421
▁pill	-11.1422
▁khúc	-11.1422
▁discussion	-11.1423
▁phẳng	-11.1423
▁đỗ	-11.1425
▁label	-11.1426
▁protection	-11.1429
▁soil	-11.143
▁fell	-11.1431
▁fourth	-11.1443
lf	-11.1451
▁organs	-11.1454
▁characters	-11.1458
▁sold	-11.1458
▁obes	-11.1463
▁improv	-11.1478
▁pounds	-11.1482
ỳ	-11.1485
▁hòn	-11.1489
0.000	-11.1493
▁musical	-11.1516
▁mosquito	-11.152
▁recycl	-11.152
▁adopt	-11.152
▁acid	-11.152
▁librar	-11.152
▁curious	-11.1521
▁belong	-11.1541
ỉ	-11.1546
tech	-11.1568
▁26	-11.157
▁ồn	-11.1577
▁organize	-11.1578
ướng	-11.1588
▁36	-11.1608
▁consume	-11.1617
▁trấn	-11.1621
▁liquid	-11.1621
▁nghiện	-11.1621
▁weather	-11.1621
▁1980	-11.1622
▁tro	-11.1622
▁roof	-11.1622
▁indicat	-11.1623
▁empower	-11.1624
▁đới	-11.1624
▁gar	-11.1631
▁phô	-11.1632
▁occurr	-11.1632
▁lego	-11.1638
▁ceo	-11.1639
▁customer	-11.1639
▁clinic	-11.1641
▁molecul	-11.1651
▁por	-11.1658
▁harm	-11.1659
▁dar	-11.1661
▁inform	-11.168
.5	-11.1685
▁skill	-11.1687
grad	-11.1696
▁electron	-11.1704
▁organ	-11.1708
top	-11.1708
ậ	-11.1711
▁cal	-11.1718
▁jazz	-11.1723
▁advertis	-11.1723
▁silence	-11.1724
▁dozen	-11.1724
▁1950	-11.1725
▁review	-11.1725
▁rational	-11.1726
▁applie	-11.1727
▁hả	-11.1728
▁penguins	-11.1732
▁brian	-11.1736
▁curve	-11.1737
ives	-11.1754
▁palm	-11.1761
▁cưới	-11.1771
▁march	-11.1784
▁dả	-11.1809
gging	-11.1816
▁planets	-11.1824
▁animation	-11.1826
▁fortunate	-11.1826
▁muscle	-11.1826
▁muộn	-11.1826
▁nhặt	-11.1826
▁unexpected	-11.1826
▁empty	-11.1826
▁frustrat	-11.1826
▁plate	-11.1826
▁flat	-11.1827
▁chemistry	-11.1827
▁lift	-11.1828
▁grain	-11.1832
rid	-11.1834
▁pig	-11.1838
▁soldiers	-11.1838
▁tax	-11.1849
scale	-11.1851
▁lie	-11.1873
ạn	-11.1879
▁shapes	-11.1895
▁vịnh	-11.19
form	-11.193
▁equivalent	-11.1931
▁uganda	-11.1931
▁valuable	-11.1931
▁intellectual	-11.1931
▁monitor	-11.1931
▁crack	-11.1931
▁incentive	-11.1931
▁kilometer	-11.1931
▁attach	-11.1931
▁quiet	-11.1933
▁teenager	-11.1933
▁motion	-11.1933
▁lifetime	-11.1943
▁poster	-11.1949
▁mỏi	-11.1951
ground	-11.1951
▁sight	-11.1963
▁mechanical	-11.197
▁demonstrate	-11.199
▁ngoa	-11.2007
▁earn	-11.2008
▁govern	-11.2025
our	-11.2028
▁habit	-11.2033
▁vé	-11.2035
▁2011	-11.2036
▁admit	-11.2036
▁criminal	-11.2036
▁ngộ	-11.2036
▁religious	-11.2036
▁stanford	-11.2036
▁stupid	-11.2036
▁surgeon	-11.2036
▁regret	-11.2036
▁symptom	-11.2036
▁múa	-11.2036
▁northern	-11.2036
▁variet	-11.2036
▁bias	-11.2051
burg	-11.2063
down	-11.2065
▁tần	-11.2068
▁wolf	-11.207
ake	-11.2074
▁origin	-11.208
▁dropp	-11.2081
▁thôn	-11.2084
▁shut	-11.21
aving	-11.2101
▁fu	-11.2102
▁player	-11.2109
▁medi	-11.2117
▁dish	-11.2119
▁ze	-11.2125
▁cướ	-11.2132
▁conduct	-11.2134
▁user	-11.214
▁hydro	-11.2142
▁battery	-11.2142
▁cacbon	-11.2142
▁flash	-11.2142
▁illusion	-11.2142
▁pilot	-11.2142
▁thuẫn	-11.2142
▁witness	-11.2142
▁combination	-11.2143
▁lawyer	-11.2144
▁joke	-11.2145
gram	-11.2145
▁cutting	-11.2146
▁comfortabl	-11.2146
▁charit	-11.2149
úc	-11.2154
uồng	-11.2157
▁jam	-11.216
▁chín	-11.2163
▁hưu	-11.2163
town	-11.2167
point	-11.2169
bar	-11.2192
▁poll	-11.2215
▁28	-11.2219
kh	-11.2222
ila	-11.2228
evin	-11.223
▁lọ	-11.224
▁32	-11.2248
▁historical	-11.2249
▁continent	-11.225
▁cambridge	-11.225
▁pregnan	-11.225
▁empathy	-11.225
▁danger	-11.225
▁prefer	-11.225
▁definite	-11.225
ỗng	-11.2254
▁setting	-11.2259
▁zone	-11.226
▁ráp	-11.2262
▁swede	-11.2274
▁counter	-11.2275
stream	-11.2277
▁pure	-11.2285
▁wine	-11.2292
bra	-11.2307
▁33	-11.231
▁nhắ	-11.2319
▁geo	-11.2322
▁khuy	-11.2325
tha	-11.2326
▁rose	-11.2336
mortality	-11.2337
▁trán	-11.2337
▁hung	-11.2345
▁expos	-11.2355
▁employ	-11.2358
▁entropy	-11.2358
▁institute	-11.2358
▁psychology	-11.2358
▁congress	-11.2358
▁convert	-11.2359
▁syria	-11.236
▁humor	-11.2361
▁apartment	-11.2361
▁winter	-11.2362
▁details	-11.2362
▁nế	-11.2364
▁intelligent	-11.2364
▁cuồng	-11.2365
▁birthday	-11.2365
▁khan	-11.2365
▁swa	-11.2365
▁matt	-11.2367
▁120	-11.2371
▁appropriate	-11.2372
▁tear	-11.2379
ota	-11.238
▁closed	-11.2382
box	-11.2397
▁brita	-11.2397
▁chiê	-11.2398
ụt	-11.2402
▁nose	-11.241
▁nạ	-11.241
▁swimm	-11.2416
hai	-11.2421
▁mall	-11.243
▁hack	-11.2437
▁dogs	-11.245
▁chocolate	-11.2468
▁hormone	-11.2468
▁mushroom	-11.2468
▁oxford	-11.2468
▁rắn	-11.2468
▁scratch	-11.2468
▁rửa	-11.2468
▁loud	-11.2469
▁rush	-11.2469
▁koran	-11.247
▁staff	-11.2471
▁jona	-11.2471
▁crop	-11.2473
cher	-11.2481
▁manh	-11.2481
▁guide	-11.2487
rrow	-11.2491
▁resistan	-11.2495
▁nor	-11.2495
source	-11.2496
▁khơ	-11.2498
▁sheet	-11.2502
▁rì	-11.2503
love	-11.251
▁journal	-11.2515
▁uy	-11.2534
▁analog	-11.2535
▁tape	-11.2537
▁embrace	-11.2549
▁opening	-11.2549
▁mistake	-11.2564
▁undern	-11.2573
▁vươn	-11.2575
▁vulnerab	-11.2579
▁false	-11.2579
▁microsoft	-11.2579
▁olympic	-11.2579
▁tedtalk	-11.2579
▁vessel	-11.2579
▁josh	-11.258
▁desk	-11.258
▁3,000	-11.2591
▁credit	-11.2598
▁section	-11.2603
▁del	-11.2609
xin	-11.2621
▁nan	-11.2625
▁wherea	-11.2632
▁inner	-11.2632
▁ừ	-11.2638
▁participate	-11.2643
▁electric	-11.2653
ney	-11.2655
▁bare	-11.2656
▁bird	-11.2676
▁consumption	-11.2692
▁equation	-11.2692
▁grateful	-11.2692
▁nervous	-11.2692
▁shadow	-11.2692
▁taliban	-11.2692
▁protest	-11.2692
▁lợn	-11.2692
▁dọn	-11.2692
▁gender	-11.2692
▁maintain	-11.2692
▁fake	-11.2696
▁wake	-11.2697
▁đạn	-11.2698
▁designers	-11.2699
▁đoan	-11.2699
▁sạn	-11.27
▁fg	-11.2713
▁lưỡng	-11.2713
▁extend	-11.2714
▁vương	-11.2714
▁stoo	-11.2715
set	-11.272
nda	-11.2721
▁sốc	-11.2721
foot	-11.2725
50	-11.273
▁union	-11.273
illa	-11.2731
▁bia	-11.2734
zo	-11.2744
▁folks	-11.2746
▁prototype	-11.2754
▁importan	-11.2761
▁geographic	-11.2762
▁soft	-11.2765
▁gentlem	-11.277
bro	-11.2776
▁dive	-11.278
logical	-11.2801
rick	-11.2802
▁shake	-11.2805
▁devil	-11.2805
▁elephant	-11.2805
▁emissions	-11.2805
▁hẹp	-11.2805
▁neanderthal	-11.2805
▁brief	-11.2805
▁scott	-11.2805
oxide	-11.2805
▁dẻo	-11.2805
▁sculpture	-11.2806
▁eastern	-11.2806
▁ghana	-11.2806
▁florid	-11.2806
▁enem	-11.2806
▁finance	-11.2806
▁member	-11.2807
▁gh	-11.2807
▁yester	-11.2813
▁đồi	-11.2816
▁lake	-11.2821
▁steps	-11.2823
stein	-11.2823
▁hal	-11.2832
dor	-11.2834
ban	-11.2837
▁phase	-11.2846
▁shoot	-11.2867
▁relate	-11.2888
▁printing	-11.2896
ivity	-11.2903
▁hous	-11.2916
▁distribut	-11.2918
▁contract	-11.292
▁cừu	-11.292
▁diagnose	-11.292
▁encounter	-11.292
▁extinct	-11.292
▁repair	-11.292
▁polio	-11.292
▁status	-11.292
▁propose	-11.292
▁soul	-11.2921
▁grab	-11.2922
▁loop	-11.2926
▁calculate	-11.2935
▁singing	-11.2936
▁director	-11.2941
bin	-11.295
▁ố	-11.2975
▁cart	-11.2984
▁limb	-11.2987
▁đáo	-11.3004
▁button	-11.3029
▁accelerat	-11.3037
▁aristotle	-11.3037
▁perceive	-11.3037
▁regard	-11.3037
▁vẹn	-11.3037
▁đạc	-11.3037
▁exchange	-11.3037
▁gulf	-11.3037
▁elder	-11.3037
▁poem	-11.3038
▁giã	-11.3039
▁boom	-11.304
▁2001	-11.3042
▁flo	-11.3043
▁mountains	-11.305
▁dâm	-11.3052
pit	-11.3053
▁victims	-11.3058
óc	-11.3075
▁angle	-11.3076
▁lận	-11.3081
▁addition	-11.309
▁manager	-11.3092
lee	-11.3115
ải	-11.3122
nia	-11.3129
▁sil	-11.3131
ược	-11.3139
▁fields	-11.3139
▁196	-11.3144
▁maps	-11.3154
▁charlie	-11.3154
▁destructi	-11.3154
▁grandfather	-11.3154
▁ingredient	-11.3154
▁spectrum	-11.3154
▁daniel	-11.3154
▁initial	-11.3154
▁dolphin	-11.3154
▁drill	-11.3154
▁heavy	-11.3154
▁title	-11.3155
▁panel	-11.3156
▁severe	-11.3157
▁reverse	-11.3158
▁hotel	-11.3159
▁kẹo	-11.3172
tum	-11.3172
▁laboratory	-11.3178
sey	-11.3182
▁lệch	-11.319
▁hò	-11.3195
water	-11.3195
read	-11.3229
▁faci	-11.3229
▁philosoph	-11.323
▁cọ	-11.3235
lia	-11.3237
▁lam	-11.3238
▁lies	-11.3246
▁cheat	-11.327
▁command	-11.3272
▁contribute	-11.3273
ju	-11.3273
▁lion	-11.3273
▁inspiration	-11.3273
▁defense	-11.3273
▁doubt	-11.3273
▁refugee	-11.3273
▁abraham	-11.3273
▁phrase	-11.3273
▁christian	-11.3273
arthur	-11.3274
ville	-11.3275
▁melt	-11.3279
ác	-11.3295
▁kick	-11.3295
▁khói	-11.3309
▁hide	-11.3315
▁players	-11.3333
▁organiz	-11.3336
▁ngụ	-11.3349
bru	-11.3351
▁jean	-11.3354
▁engaged	-11.3358
▁bắp	-11.3367
000	-11.3369
▁85	-11.3375
▁islam	-11.3393
▁abstract	-11.3394
▁circumstance	-11.3394
▁physicist	-11.3394
▁quặ	-11.3394
▁texas	-11.3394
▁transplant	-11.3394
▁gravity	-11.3394
▁clay	-11.3394
▁hydrogen	-11.3394
▁shall	-11.3399
▁mistakes	-11.341
▁seek	-11.342
▁yu	-11.3432
▁meal	-11.3433
▁float	-11.3444
▁opera	-11.3446
huê	-11.3447
▁confus	-11.3451
▁fascinat	-11.3462
▁lờ	-11.3476
▁behavioral	-11.3481
ache	-11.3493
right	-11.3502
rising	-11.3504
being	-11.3511
wood	-11.3513
▁conclusion	-11.3516
▁lecture	-11.3516
▁mathematics	-11.3516
▁volume	-11.3516
▁boundar	-11.3516
▁cạn	-11.3516
▁jail	-11.3517
▁medium	-11.3517
▁meaningful	-11.3518
▁pool	-11.3519
▁cop	-11.352
▁pray	-11.352
▁expectation	-11.3524
▁prediction	-11.3524
pped	-11.3527
ôn	-11.3533
uốt	-11.3536
▁av	-11.3538
▁plus	-11.3548
▁cyr	-11.3553
▁cương	-11.3559
▁val	-11.357
▁lũng	-11.3575
▁bách	-11.3587
▁weak	-11.3588
▁programm	-11.3589
▁def	-11.3608
▁critic	-11.362
▁occur	-11.3626
▁handle	-11.3629
▁transport	-11.3637
▁assumption	-11.3639
▁height	-11.3639
▁implant	-11.3639
▁relevant	-11.3639
▁harvest	-11.3639
▁forgot	-11.364
▁internal	-11.364
▁romantic	-11.364
▁korea	-11.364
▁bond	-11.3643
▁mòn	-11.3643
▁dense	-11.3643
▁season	-11.3644
▁threaten	-11.3654
star	-11.3658
▁dạo	-11.3665
▁mos	-11.3668
▁dai	-11.3668
▁file	-11.3687
▁sahara	-11.3695
ridge	-11.3696
▁coal	-11.3706
gged	-11.3708
▁load	-11.3709
▁bob	-11.3717
▁lạp	-11.3733
▁đợ	-11.3733
ola	-11.3738
cro	-11.3748
▁woo	-11.3748
rtex	-11.3752
▁construct	-11.3762
▁advice	-11.3764
▁buýt	-11.3764
▁illegal	-11.3764
▁implication	-11.3764
▁kitchen	-11.3764
▁insulin	-11.3764
▁framework	-11.3764
▁dirt	-11.3765
▁intention	-11.3766
▁mike	-11.3766
▁tower	-11.3767
witz	-11.3767
▁exception	-11.377
ware	-11.3771
▁quyê	-11.3777
▁percentage	-11.3785
▁challeng	-11.3787
▁shell	-11.3788
▁entr	-11.3806
▁graphic	-11.3811
▁chăn	-11.3814
▁participat	-11.3819
▁clock	-11.3819
▁vot	-11.3824
▁route	-11.3829
▁ngừa	-11.3839
org	-11.3842
▁pot	-11.3845
fer	-11.385
rich	-11.3852
▁kiệ	-11.3868
war	-11.3871
▁nhó	-11.3877
▁recogni	-11.389
▁earthquake	-11.3891
▁ruộ	-11.3891
▁unusual	-11.3891
▁establish	-11.3891
▁license	-11.3891
▁rescue	-11.3891
▁sophisticat	-11.3891
▁norden	-11.3891
▁welcome	-11.3891
▁nerve	-11.3891
▁mode	-11.3892
▁lifestyle	-11.3892
▁vang	-11.3898
▁lee	-11.3898
▁alex	-11.3898
▁confront	-11.3899
▁dở	-11.39
▁dealing	-11.3909
▁pink	-11.391
▁dốc	-11.391
▁ken	-11.3917
▁polle	-11.3929
▁emergenc	-11.3934
▁carol	-11.3936
▁comfort	-11.3939
ew	-11.3943
▁bj	-11.3951
▁edit	-11.3959
▁dig	-11.3962
jo	-11.3983
print	-11.3985
▁dea	-11.3997
▁seal	-11.4001
▁ob	-11.4006
▁agricultur	-11.4014
▁celebrate	-11.4014
▁investigat	-11.4018
▁dồ	-11.4018
▁compos	-11.4019
▁apparent	-11.4019
▁dinosaur	-11.4019
▁filter	-11.4019
▁illustrate	-11.4019
▁instruction	-11.4019
▁psychologist	-11.4019
▁intense	-11.4019
▁southern	-11.4019
▁club	-11.4019
▁2050	-11.4022
▁mỉ	-11.4026
▁wise	-11.403
▁dũ	-11.403
▁sports	-11.4034
▁hollywo	-11.4034
▁reli	-11.4034
▁yorker	-11.4036
47	-11.4042
bm	-11.405
▁lơ	-11.4053
▁lượt	-11.4062
▁mini	-11.4068
ology	-11.4074
wan	-11.4082
ugh	-11.4083
▁xé	-11.4084
stone	-11.4086
▁vượng	-11.4092
▁loa	-11.4094
fusion	-11.4095
▁iron	-11.4096
▁nhú	-11.4101
▁gut	-11.4104
ima	-11.4119
▁liver	-11.412
▁tech	-11.4131
mbi	-11.4146
rhythm	-11.4149
▁concrete	-11.4149
▁judgment	-11.4149
▁liberal	-11.4149
▁physician	-11.4149
▁sandwich	-11.4149
▁vegetable	-11.4149
▁overwhelm	-11.4149
▁alpha	-11.4149
▁steel	-11.4149
▁steal	-11.4149
▁pump	-11.4149
▁collaboration	-11.4149
▁jenn	-11.415
▁clever	-11.4151
▁improvement	-11.4153
▁orbit	-11.4157
▁announc	-11.4161
cut	-11.4166
▁31	-11.4168
▁academic	-11.4176
▁host	-11.4179
gar	-11.4193
▁priorit	-11.4209
▁29	-11.4213
▁sôi	-11.4226
▁han	-11.4234
clu	-11.4234
▁imagin	-11.4241
▁terroris	-11.4261
▁harr	-11.4267
▁appreciate	-11.428
▁dội	-11.428
▁economies	-11.428
▁participant	-11.428
▁ritual	-11.428
▁frog	-11.428
▁contrast	-11.4281
▁length	-11.4281
▁biologist	-11.4281
▁airport	-11.4282
▁pile	-11.4282
▁phác	-11.4282
▁reference	-11.4282
▁mathematical	-11.4283
▁needle	-11.4286
▁agent	-11.4293
▁statement	-11.4294
▁grave	-11.4298
▁mượ	-11.4301
▁former	-11.4302
▁xám	-11.4304
▁eve	-11.4309
▁mill	-11.4314
eck	-11.4315
▁hyper	-11.4327
path	-11.4364
ji	-11.4369
▁55	-11.4371
.7	-11.4376
▁item	-11.4376
▁vent	-11.4376
▁peer	-11.4385
lew	-11.4392
▁sorr	-11.4396
▁đai	-11.4397
▁nico	-11.44
▁mah	-11.4404
eeth	-11.4413
▁transmit	-11.4414
▁innovative	-11.4414
▁primary	-11.4414
▁singapore	-11.4414
▁reject	-11.4414
▁watson	-11.4414
▁client	-11.4414
▁rosling	-11.4414
▁behave	-11.4414
▁characteristic	-11.4414
▁greenhouse	-11.4415
▁nản	-11.4415
▁awareness	-11.4416
▁iceland	-11.4417
▁grace	-11.4417
▁infection	-11.4418
▁xăng	-11.4418
▁coral	-11.4418
▁pour	-11.442
▁activist	-11.4424
▁hire	-11.4427
▁confidence	-11.4432
▁prince	-11.4437
▁bug	-11.4444
▁fed	-11.445
hâm	-11.4453
▁mur	-11.4482
▁observ	-11.4482
back	-11.4485
▁emerge	-11.4485
▁entrepreneurs	-11.4485
ới	-11.4488
ự	-11.4501
▁node	-11.4507
▁cents	-11.4509
▁div	-11.4523
58	-11.4531
▁vay	-11.454
▁crash	-11.4549
▁explanation	-11.4549
▁muối	-11.4549
▁ngẩn	-11.4549
▁split	-11.4549
▁bìa	-11.4549
▁spiritual	-11.4549
▁vulnerability	-11.4549
surance	-11.4549
▁lắc	-11.4549
▁homo	-11.4549
▁functional	-11.455
▁sustainability	-11.455
▁observation	-11.4551
▁tip	-11.4551
▁transportation	-11.4551
▁painful	-11.4551
▁gree	-11.4552
ril	-11.4554
▁abuse	-11.4554
▁attitude	-11.4559
▁lúa	-11.4559
▁hunger	-11.4563
▁danc	-11.4567
▁prime	-11.4592
áu	-11.4618
ụng	-11.4637
▁trace	-11.4638
▁russia	-11.4643
▁broke	-11.4645
▁borders	-11.4648
▁prepar	-11.4678
▁authentic	-11.4686
▁candidate	-11.4686
▁centuries	-11.4686
▁detroit	-11.4686
▁district	-11.4686
▁gandhi	-11.4686
▁identical	-11.4686
▁inevitabl	-11.4686
▁mandela	-11.4686
▁privilege	-11.4686
▁trộm	-11.4686
▁zealand	-11.4686
▁healthcare	-11.4686
▁wound	-11.4686
▁flag	-11.4686
▁ruồi	-11.4686
▁dvd	-11.4686
▁input	-11.4686
▁unknown	-11.4687
▁decline	-11.4687
▁clue	-11.4687
▁france	-11.4689
▁afterward	-11.469
▁đẽ	-11.4692
▁loan	-11.47
iness	-11.4704
▁ván	-11.4706
▁reader	-11.4708
rian	-11.4715
▁border	-11.4724
▁philosopher	-11.4727
bound	-11.4727
▁quarter	-11.4728
▁suck	-11.4732
▁lượ	-11.4743
what	-11.4744
ette	-11.4747
▁assembl	-11.4748
omi	-11.4753
ồi	-11.4788
ưởng	-11.48
▁computing	-11.4825
▁globe	-11.4825
▁intervention	-11.4825
▁kingdom	-11.4825
▁revenue	-11.4825
▁shakespeare	-11.4825
▁accomplish	-11.4825
▁fruit	-11.4825
▁embarrass	-11.4825
▁murder	-11.4825
▁simon	-11.4825
▁worm	-11.4825
▁islamic	-11.4827
▁nghiệt	-11.4831
▁hóc	-11.4834
▁heroes	-11.4836
▁fabric	-11.4844
iễu	-11.4846
▁conventional	-11.4851
▁nát	-11.4859
▁nick	-11.4869
▁eggs	-11.4871
▁sin	-11.4873
▁ếch	-11.4875
for	-11.4883
iếm	-11.4899
look	-11.4905
▁cor	-11.4906
▁smoke	-11.4951
▁mile	-11.4951
▁tiễn	-11.4955
▁37	-11.4959
▁195	-11.4962
▁horrible	-11.4966
▁indonesia	-11.4966
▁joseph	-11.4966
▁miracle	-11.4966
▁spider	-11.4966
▁nhện	-11.4966
▁barrier	-11.4966
▁plent	-11.4966
▁plot	-11.4966
▁orange	-11.4966
▁transfer	-11.4966
▁blank	-11.4966
▁thumb	-11.4966
▁migrat	-11.4966
▁interactive	-11.4966
▁pollution	-11.4967
▁productive	-11.4971
▁tele	-11.4975
▁tank	-11.4975
ility	-11.4976
▁grass	-11.4977
▁ngợ	-11.4977
▁automatic	-11.4983
,500	-11.4989
▁gray	-11.499
ulate	-11.4994
▁bow	-11.5001
▁till	-11.5001
▁50,000	-11.5008
wright	-11.5015
aging	-11.5017
▁logo	-11.5017
▁ought	-11.5019
place	-11.5024
▁jane	-11.5026
view	-11.5026
▁argu	-11.5028
ghê	-11.5032
can	-11.5034
▁prepared	-11.5039
ọ	-11.5041
▁lân	-11.5044
▁mau	-11.5053
▁sô	-11.5055
ninh	-11.506
▁thẳ	-11.5086
▁burning	-11.509
▁sọ	-11.5094
ford	-11.5099
▁classic	-11.5104
▁anonymous	-11.5109
▁bronx	-11.5109
▁christmas	-11.5109
▁fossil	-11.5109
▁immune	-11.5109
▁jihad	-11.5109
▁mươi	-11.5109
▁procedure	-11.5109
▁violent	-11.5109
▁trillion	-11.5109
▁cousin	-11.5109
▁ooh	-11.5109
▁carolina	-11.5109
▁footprint	-11.5109
▁overall	-11.5109
▁polici	-11.5109
▁radiation	-11.511
▁exam	-11.511
▁headline	-11.5114
▁mapp	-11.5114
▁queen	-11.5116
▁zoom	-11.512
▁jun	-11.5121
▁flip	-11.5123
▁800	-11.5131
▁boot	-11.5136
▁chile	-11.5147
▁parking	-11.5147
▁steph	-11.5156
40	-11.5163
part	-11.5166
house	-11.5174
▁tạng	-11.5194
▁xá	-11.5203
▁explor	-11.521
▁quyế	-11.5211
horn	-11.5213
oto	-11.5215
▁suppose	-11.5221
▁cure	-11.5223
bati	-11.5223
▁depress	-11.5252
▁bicycle	-11.5253
▁bẩn	-11.5253
▁deserve	-11.5253
▁frequenc	-11.5253
▁stroke	-11.5253
▁arrest	-11.5253
▁balloon	-11.5253
▁cluster	-11.5253
▁implement	-11.5253
▁metaboli	-11.5253
▁condom	-11.5254
▁technological	-11.5254
▁silent	-11.5255
▁xỉ	-11.5256
▁chôn	-11.5257
▁award	-11.5258
▁dỗ	-11.526
▁chẽ	-11.5264
▁fortune	-11.5267
bor	-11.5268
▁activate	-11.5274
▁fin	-11.5283
▁jh	-11.5283
▁bible	-11.529
▁phun	-11.5293
▁hét	-11.5296
▁pound	-11.531
▁tím	-11.5311
▁injur	-11.5324
bble	-11.5331
▁educational	-11.5344
ept	-11.5346
▁cosm	-11.5351
visible	-11.5361
ister	-11.5368
ngry	-11.5394
▁corn	-11.5396
▁egypt	-11.54
▁computation	-11.5401
▁frighten	-11.5401
▁stewart	-11.5401
▁slum	-11.5401
▁gũi	-11.5401
▁albert	-11.5401
▁adventure	-11.5401
▁sheep	-11.5401
▁laden	-11.5401
▁download	-11.5402
▁existence	-11.5403
▁jesu	-11.5404
▁engagement	-11.5404
▁defend	-11.5405
▁hí	-11.5406
▁1900	-11.5407
▁axis	-11.5407
▁xích	-11.5407
▁2002	-11.5411
▁presentation	-11.5412
▁firm	-11.5419
▁asset	-11.5423
▁tráng	-11.5425
bon	-11.5426
▁oxy	-11.5434
▁newton	-11.5438
▁upper	-11.5444
bc	-11.5455
▁đan	-11.5464
power	-11.5465
▁mộng	-11.5466
▁cast	-11.5467
▁shir	-11.5468
field	-11.5469
▁clar	-11.5469
▁citizen	-11.5469
▁rũ	-11.548
▁mont	-11.5481
▁700	-11.5481
▁farmer	-11.5482
▁neuron	-11.5494
▁donor	-11.5505
át	-11.5511
▁lánh	-11.5526
▁icon	-11.5537
▁courage	-11.5549
▁favor	-11.5549
▁disrupt	-11.555
▁eliminat	-11.555
▁motivation	-11.555
▁depth	-11.555
▁heaven	-11.555
▁presence	-11.555
▁ticket	-11.555
▁alexand	-11.5551
▁underwater	-11.5551
ending	-11.5552
▁restore	-11.5553
▁habitat	-11.5554
▁mail	-11.5558
▁trait	-11.5564
▁jud	-11.5566
▁pitch	-11.559
generat	-11.5603
▁arabi	-11.5621
half	-11.5621
truck	-11.5623
▁viewer	-11.5627
▁jet	-11.5628
ách	-11.5635
▁kit	-11.5639
ị	-11.5643
▁xướ	-11.5643
▁shoulder	-11.5644
▁recording	-11.5666
▁crow	-11.567
erson	-11.5678
úp	-11.5684
▁beside	-11.5689
▁install	-11.5699
▁astonishing	-11.5701
▁efficienc	-11.5701
▁escape	-11.5701
▁furniture	-11.5701
▁marathon	-11.5701
▁permanent	-11.5701
▁sphere	-11.5701
▁plain	-11.5701
▁senior	-11.5701
▁session	-11.5701
▁stretch	-11.5701
▁glad	-11.5701
▁beetle	-11.5702
▁ignorance	-11.5702
▁mystery	-11.5702
▁calculation	-11.5702
▁narrow	-11.5702
▁commitment	-11.5702
▁breathe	-11.5702
brush	-11.5703
▁attend	-11.5704
▁mổ	-11.5711
▁sensitive	-11.5718
▁motivate	-11.5719
mara	-11.5726
hẳng	-11.5735
orient	-11.5742
▁cord	-11.5751
▁spreading	-11.5753
▁kep	-11.5754
▁bám	-11.5756
▁hid	-11.5758
▁sắm	-11.5762
▁jay	-11.5766
worth	-11.5774
bur	-11.5782
hour	-11.5788
uỹ	-11.5804
▁uh	-11.5808
▁rub	-11.5816
hel	-11.5818
▁giọ	-11.5833
▁myth	-11.5834
raising	-11.5836
ecd	-11.5837
▁impress	-11.5853
▁interpret	-11.5853
▁euro	-11.5854
▁curiosity	-11.5855
▁dopamine	-11.5855
▁froze	-11.5855
▁mammal	-11.5855
▁ngẫm	-11.5855
▁knock	-11.5855
▁sáo	-11.5855
▁inject	-11.5855
▁sweat	-11.5855
▁kìa	-11.5855
▁mimic	-11.5856
▁1930	-11.5856
▁chaos	-11.586
▁regime	-11.5861
▁tivi	-11.5861
▁clothes	-11.5861
▁raw	-11.5861
▁lim	-11.5871
rane	-11.5871
▁storm	-11.588
ừ	-11.5883
▁entrepreneur	-11.5895
▁abilit	-11.5902
▁thick	-11.5902
▁chù	-11.591
▁eco	-11.5913
▁dam	-11.592
▁elect	-11.5927
press	-11.593
▁5,000	-11.5948
▁arch	-11.5956
▁formula	-11.5966
kg	-11.5973
▁pad	-11.5998
▁capabilit	-11.5999
▁drag	-11.6007
▁1999	-11.6011
▁demographic	-11.6011
▁external	-11.6011
▁fifth	-11.6011
▁request	-11.6011
▁telephone	-11.6011
▁vạch	-11.6011
▁mến	-11.6011
▁spell	-11.6011
▁conservative	-11.6011
▁guard	-11.6013
▁exploration	-11.6013
5,000	-11.6014
▁reduc	-11.6018
▁đệ	-11.6022
▁frankl	-11.6022
hood	-11.6027
zar	-11.6031
▁rã	-11.6033
▁style	-11.6051
▁defin	-11.6056
▁rò	-11.606
▁lui	-11.6062
▁bull	-11.6097
▁processe	-11.6106
▁chọ	-11.6116
▁repeat	-11.6121
▁vờ	-11.6129
cus	-11.6131
izz	-11.6139
gger	-11.6158
urg	-11.6159
▁feeding	-11.616
▁nov	-11.6162
▁devo	-11.6165
87	-11.6168
▁athlete	-11.617
▁controvers	-11.617
▁diploma	-11.617
▁portrait	-11.617
▁ridiculous	-11.617
▁tanzania	-11.617
▁yield	-11.617
▁ultra	-11.617
▁evaluat	-11.617
▁pretend	-11.617
▁fluid	-11.6171
▁conservation	-11.6171
▁cheese	-11.6171
▁agenda	-11.6172
▁wireless	-11.6173
▁nhường	-11.6176
▁backward	-11.6177
▁rome	-11.6178
illi	-11.6181
▁lỡ	-11.6189
▁lăng	-11.6191
▁gg	-11.6193
▁20,000	-11.6196
▁gear	-11.6197
▁antibiotics	-11.6207
▁israeli	-11.6242
▁spoken	-11.6243
▁younger	-11.6258
call	-11.6264
▁angel	-11.6266
iff	-11.6266
stage	-11.6297
▁bê	-11.6306
▁nhạt	-11.6323
▁distinct	-11.6329
▁afternoon	-11.6331
▁ancestor	-11.6331
▁column	-11.6331
▁deploy	-11.6331
▁intuitive	-11.6331
▁neuroscience	-11.6331
▁sacrifice	-11.6331
▁rebuild	-11.6331
▁concert	-11.6331
▁philip	-11.6331
▁leap	-11.6331
▁systematic	-11.6332
▁spill	-11.6332
▁bribe	-11.6332
▁delhi	-11.6332
▁olive	-11.6332
▁evolutionary	-11.6334
▁inequalit	-11.6335
▁léo	-11.6339
▁chuông	-11.6342
▁huynh	-11.6347
▁struggl	-11.6352
▁kiê	-11.6355
▁prisoner	-11.6356
▁mary	-11.6361
▁ngớ	-11.6373
▁mic	-11.6376
▁jaw	-11.6377
▁boxe	-11.6395
▁flie	-11.6396
class	-11.6415
break	-11.6415
▁tune	-11.6417
▁stor	-11.642
▁log	-11.6433
▁chest	-11.6441
▁weigh	-11.6451
▁mate	-11.6451
rse	-11.6455
▁đoạ	-11.6456
▁que	-11.6469
ulu	-11.647
▁lưỡ	-11.6472
▁photographer	-11.6472
▁rating	-11.6474
▁manag	-11.6478
▁optimis	-11.6494
▁afghan	-11.6495
▁jordan	-11.6495
▁orchestra	-11.6495
▁palestine	-11.6495
▁rainforest	-11.6495
▁transparency	-11.6495
▁chớp	-11.6495
▁tight	-11.6495
▁antarctic	-11.6495
▁genius	-11.6495
▁microscope	-11.6496
▁copyright	-11.6496
▁plug	-11.6496
▁disney	-11.6496
▁cafe	-11.6499
▁stack	-11.65
▁iranian	-11.65
▁trigger	-11.6506
▁native	-11.6509
▁densit	-11.6517
▁sét	-11.6523
▁granted	-11.6536
▁fiber	-11.6553
▁tê	-11.6556
▁má	-11.6558
gli	-11.6567
▁seeds	-11.6577
hub	-11.6577
while	-11.6581
forward	-11.6581
▁48	-11.6586
writ	-11.6596
sept	-11.6596
▁bồi	-11.6603
▁mat	-11.6606
▁gram	-11.6606
▁polar	-11.6614
▁bold	-11.6616
▁shin	-11.6621
▁resist	-11.6623
▁fixed	-11.6624
▁linked	-11.6629
▁exten	-11.664
▁salt	-11.6653
▁refer	-11.6653
▁association	-11.6662
▁compound	-11.6662
▁corporate	-11.6662
▁corporation	-11.6662
▁discipline	-11.6662
▁disturb	-11.6662
▁embedded	-11.6662
▁paradigm	-11.6662
▁privacy	-11.6662
▁scotland	-11.6662
▁vietnam	-11.6662
▁vitamin	-11.6662
▁interconnect	-11.6662
▁robust	-11.6662
▁album	-11.6662
▁brooklyn	-11.6662
▁hawk	-11.6662
▁predator	-11.6662
▁jones	-11.6663
▁virginia	-11.6663
▁optimistic	-11.6663
▁flood	-11.6663
▁nhiễu	-11.6663
openha	-11.6664
▁variation	-11.6664
▁2030	-11.6664
▁quest	-11.6681
long	-11.6682
▁tasmanian	-11.6689
▁dust	-11.6693
▁rỗng	-11.6696
ifer	-11.6701
▁projection	-11.6708
▁educate	-11.6725
▁kenne	-11.6733
▁craft	-11.6738
▁impos	-11.6751
room	-11.6755
▁analyze	-11.6756
▁twin	-11.6788
▁freez	-11.6806
▁rot	-11.6807
57	-11.6809
▁strategi	-11.6818
ook	-11.6819
▁passenger	-11.6831
▁household	-11.6831
▁proportion	-11.6831
▁wheelchair	-11.6831
arctic	-11.6832
▁appeal	-11.6832
▁silver	-11.6832
▁lewi	-11.6833
▁translation	-11.6833
▁winner	-11.6834
▁database	-11.6835
▁sarah	-11.6836
▁pace	-11.6841
▁breed	-11.6845
▁carro	-11.6848
▁kem	-11.6851
▁cake	-11.6852
▁magn	-11.6855
88	-11.6857
45	-11.6869
bit	-11.687
▁merc	-11.6874
12	-11.6876
▁ngươ	-11.6878
▁phe	-11.688
▁russian	-11.6886
▁radi	-11.6889
.9	-11.6896
▁ché	-11.6903
.6	-11.6904
▁38	-11.691
hem	-11.6919
▁injury	-11.6925
▁rip	-11.6929
▁engag	-11.693
▁personalit	-11.695
▁000	-11.6954
eil	-11.6976
▁suicide	-11.7004
▁compell	-11.7004
▁pioneer	-11.7004
▁gậy	-11.7004
▁retina	-11.7004
▁admir	-11.7004
▁wiki	-11.7005
▁representative	-11.7005
▁ngử	-11.7006
▁proof	-11.7006
▁ipod	-11.7006
▁desperate	-11.7006
▁branch	-11.7007
▁cash	-11.7007
▁triệ	-11.7013
▁editor	-11.7015
▁bolt	-11.7016
▁strip	-11.7017
▁marc	-11.702
▁pie	-11.7026
▁classical	-11.7031
ếu	-11.7032
▁officer	-11.7035
▁crucial	-11.7041
▁utter	-11.7055
▁quậ	-11.7061
▁bowl	-11.7066
▁figur	-11.7095
olation	-11.7095
▁stepp	-11.71
▁montan	-11.7118
terior	-11.7118
ruct	-11.7121
fo	-11.7128
oil	-11.7139
plan	-11.7157
▁carl	-11.7162
kar	-11.7177
▁chromosome	-11.7179
▁psychological	-11.7179
▁qatar	-11.7179
▁recipe	-11.7179
▁scenario	-11.7179
▁sylvi	-11.7179
▁tunnel	-11.7179
▁abandon	-11.7179
▁complain	-11.7179
▁incident	-11.7179
▁secure	-11.7179
▁suspect	-11.7179
▁ensure	-11.7179
▁gesture	-11.7179
▁bosnia	-11.7179
▁distant	-11.7179
▁diabet	-11.7179
▁hoãn	-11.718
▁kidney	-11.718
▁vertical	-11.718
▁ambitio	-11.7181
▁hungry	-11.7181
▁leak	-11.7182
▁blend	-11.7184
▁đúc	-11.7185
▁objective	-11.7185
▁súp	-11.7188
▁hook	-11.7195
▁cheaper	-11.7197
▁anger	-11.72
▁scal	-11.7201
▁blame	-11.7204
▁bể	-11.7206
▁mỡ	-11.7206
▁dose	-11.7212
▁mộc	-11.7224
▁ross	-11.7239
▁tick	-11.7261
15	-11.7268
▁pose	-11.7274
craft	-11.7277
▁lega	-11.7284
lice	-11.7305
▁luc	-11.7314
▁poly	-11.7323
▁settl	-11.7332
dependent	-11.7334
▁egg	-11.7334
▁fox	-11.7348
▁negotiat	-11.7355
▁nucle	-11.7356
oắn	-11.7358
▁1984	-11.7358
▁clinton	-11.7358
▁description	-11.7358
▁guarantee	-11.7358
▁parkinson	-11.7358
▁strike	-11.7358
▁distract	-11.7358
▁dedicate	-11.7358
▁plato	-11.7358
▁fried	-11.7359
▁edward	-11.7359
▁ideolog	-11.7359
▁demonstration	-11.7359
▁continuous	-11.7359
▁fool	-11.736
▁johnny	-11.7361
alem	-11.7361
some	-11.7362
logy	-11.7368
▁comedy	-11.7371
▁coach	-11.7372
▁bath	-11.7384
▁infinite	-11.7393
▁ugl	-11.7393
▁44	-11.7399
▁committ	-11.7407
▁boss	-11.7419
▁roman	-11.7435
▁chì	-11.7438
▁julian	-11.7439
mount	-11.7448
ý	-11.7449
▁surrounding	-11.7457
assembl	-11.7458
sahara	-11.7459
global	-11.7459
engineer	-11.7459
▁hunt	-11.7459
▁sauce	-11.7467
▁lip	-11.7472
▁nàn	-11.7472
▁shopp	-11.7473
▁nhầ	-11.7486
68	-11.752
▁cloth	-11.7533
▁oppos	-11.754
▁adjust	-11.754
▁alcohol	-11.754
▁ethiopia	-11.754
▁excellen	-11.754
▁intrigu	-11.754
▁prosthetic	-11.754
▁suspend	-11.754
▁đuối	-11.754
▁abundan	-11.754
▁accumulat	-11.754
▁calorie	-11.754
▁expectanc	-11.754
▁approv	-11.754
▁tiger	-11.754
▁rick	-11.754
▁leban	-11.7541
▁persist	-11.7541
▁moore	-11.7541
▁nathan	-11.7542
▁2012	-11.7543
▁pause	-11.7543
▁susan	-11.7543
▁drum	-11.7545
▁scanner	-11.7558
tangible	-11.7563
jill	-11.7563
▁instantly	-11.7567
▁norm	-11.7569
▁đôla	-11.7569
rah	-11.7574
gun	-11.7584
mart	-11.7585
▁stair	-11.7586
▁phà	-11.7595
▁victoria	-11.7604
▁compet	-11.7623
▁trá	-11.7626
▁observe	-11.7628
▁hind	-11.7632
▁dj	-11.7636
american	-11.7644
▁mayor	-11.7645
▁72	-11.7646
▁shipp	-11.7646
▁isolat	-11.7662
▁hé	-11.7687
▁excite	-11.7692
▁pit	-11.7704
chan	-11.7705
▁empire	-11.7725
▁hamburger	-11.7725
▁hawaii	-11.7725
▁leonardo	-11.7725
▁pacifi	-11.7725
▁sierra	-11.7725
▁smartphone	-11.7725
▁synthetic	-11.7725
▁tattoo	-11.7725
▁freak	-11.7725
▁tiệm	-11.7725
▁julie	-11.7725
▁shelter	-11.7725
▁babylon	-11.7725
▁combat	-11.7725
▁huý	-11.7725
cellular	-11.7725
▁football	-11.7726
▁toxic	-11.7726
▁partnership	-11.7726
▁cooperation	-11.7726
▁subtle	-11.7726
▁watt	-11.7727
▁garage	-11.7727
▁ipad	-11.7727
▁delight	-11.7729
kind	-11.773
▁ní	-11.7743
▁alter	-11.7749
▁1.5	-11.7756
▁mice	-11.7764
▁rỉ	-11.7765
▁marine	-11.7772
▁inventor	-11.7773
▁shine	-11.7802
▁42	-11.7809
▁magnet	-11.7812
▁capitalis	-11.7818
▁verb	-11.7824
▁steven	-11.7837
two	-11.7841
▁kal	-11.7853
cô	-11.7864
rine	-11.7874
▁jar	-11.7884
▁gô	-11.7889
▁occasional	-11.7891
hức	-11.7893
▁overcom	-11.7896
▁ái	-11.7901
▁satisf	-11.7901
▁vớ	-11.7909
▁absorb	-11.7914
▁correspond	-11.7914
▁hemisphere	-11.7914
▁identifie	-11.7914
▁protocell	-11.7914
▁recommend	-11.7914
▁essence	-11.7914
▁nghẽn	-11.7914
▁federal	-11.7914
▁roger	-11.7914
▁debt	-11.7914
▁accent	-11.7914
▁dump	-11.7914
▁punish	-11.7914
▁46	-11.7915
▁banjo	-11.7915
▁contribution	-11.7916
ncol	-11.7916
▁titan	-11.7916
▁alien	-11.7916
▁lester	-11.7916
digit	-11.7922
▁4,000	-11.7924
iết	-11.7924
▁comic	-11.7925
▁promote	-11.7926
▁sharp	-11.7926
▁vari	-11.7927
▁kin	-11.7931
13	-11.7936
▁magical	-11.7943
▁dough	-11.7947
▁fran	-11.7947
▁96	-11.7956
hạch	-11.7978
agne	-11.798
▁whistle	-11.7983
▁130	-11.7992
iza	-11.7995
▁ló	-11.7997
▁imag	-11.7998
▁lamp	-11.8009
▁vital	-11.8019
▁specialize	-11.8022
▁mầm	-11.8022
direct	-11.8026
▁gien	-11.8031
▁ethical	-11.8032
ryl	-11.804
cca	-11.8076
ounce	-11.8089
▁bless	-11.8102
▁killer	-11.8105
▁acquire	-11.8106
▁concentration	-11.8106
▁exploit	-11.8106
▁guilt	-11.8106
▁pheromone	-11.8106
▁pyramid	-11.8106
▁terrifi	-11.8106
▁coordinat	-11.8106
▁excuse	-11.8106
▁pulse	-11.8106
▁regulation	-11.8106
▁somalia	-11.8106
▁conclude	-11.8106
▁gradual	-11.8106
▁refuse	-11.8106
▁torture	-11.8106
▁harbor	-11.8106
▁textbook	-11.8106
▁resolve	-11.8106
atur	-11.8107
▁reduction	-11.8107
▁spark	-11.8108
▁crystal	-11.8108
▁exhibition	-11.8108
▁trash	-11.8109
▁giậ	-11.8109
▁khoăn	-11.8109
▁chief	-11.8114
▁vạn	-11.8114
▁vã	-11.8116
▁dominat	-11.8116
▁cameron	-11.8118
▁kề	-11.812
▁coke	-11.8122
▁slice	-11.8122
▁hut	-11.8126
▁toast	-11.8133
ado	-11.8144
▁taxi	-11.8158
▁pun	-11.8164
▁preserve	-11.8167
▁script	-11.8167
▁printer	-11.8172
▁gel	-11.8179
85	-11.819
▁shooting	-11.8197
▁2.0	-11.82
▁86	-11.8206
▁gw	-11.8214
comfortabl	-11.822
shirt	-11.8224
force	-11.8224
▁xó	-11.8227
▁grant	-11.8254
▁phậ	-11.8257
▁neuro	-11.8259
▁instant	-11.8273
law	-11.8289
▁capita	-11.8297
▁psychopath	-11.8302
▁aesthetic	-11.8302
▁berkeley	-11.8302
▁inspiring	-11.8302
▁intuition	-11.8302
▁jeopard	-11.8302
▁obstacle	-11.8302
▁phosphorus	-11.8302
▁spaghetti	-11.8302
▁substance	-11.8302
▁tempest	-11.8302
▁unbelievabl	-11.8302
▁wheat	-11.8302
▁mutation	-11.8302
▁paralyz	-11.8302
▁drove	-11.8302
▁probabilit	-11.8302
vasive	-11.8302
▁columbia	-11.8303
▁bullet	-11.8303
▁keyboard	-11.8303
▁manipulat	-11.8304
▁agricultural	-11.8309
▁representation	-11.8311
▁tedster	-11.8314
zler	-11.8318
▁detector	-11.8322
▁kiss	-11.8324
▁nutrition	-11.8335
▁tide	-11.8352
áp	-11.8353
▁rốt	-11.8361
▁damn	-11.8361
▁quantit	-11.8362
▁marco	-11.8362
born	-11.8367
▁format	-11.837
▁ethic	-11.8378
ership	-11.8406
▁kệ	-11.8407
▁additional	-11.841
▁prepare	-11.841
century	-11.8421
▁resilienc	-11.8422
▁ratio	-11.8424
▁marker	-11.8426
word	-11.8434
book	-11.8435
itude	-11.8455
▁victim	-11.8465
▁mớ	-11.8466
▁industri	-11.8493
▁destin	-11.85
jazeera	-11.8502
▁anxiety	-11.8502
▁argentina	-11.8502
▁audio	-11.8502
▁august	-11.8502
▁glacier	-11.8502
▁nutrient	-11.8502
▁paradox	-11.8502
▁parallel	-11.8502
▁sputnik	-11.8502
▁starbuck	-11.8502
▁supermarket	-11.8502
▁ushahidi	-11.8502
▁zimbabwe	-11.8502
▁copernic	-11.8502
▁primate	-11.8502
▁profile	-11.8502
▁sketch	-11.8502
▁chapter	-11.8502
▁soviet	-11.8502
▁convict	-11.8502
▁burden	-11.8502
▁civic	-11.8502
▁array	-11.8502
atlantic	-11.8502
▁biosphere	-11.8502
▁ruin	-11.8503
▁woke	-11.8503
▁variable	-11.8505
▁limitation	-11.8507
▁achievement	-11.8508
▁render	-11.851
▁sướng	-11.8516
▁smok	-11.8524
▁mul	-11.8528
▁duck	-11.8529
▁hông	-11.8532
▁hunter	-11.8532
titude	-11.8533
80	-11.8538
▁locate	-11.8545
▁dear	-11.8547
.8	-11.8551
made	-11.8553
▁investor	-11.856
60	-11.856
ulation	-11.8566
▁dancer	-11.8609
▁magnetic	-11.8613
▁julia	-11.8614
master	-11.8631
▁nest	-11.8656
ề	-11.8664
▁inspire	-11.8674
▁140	-11.8678
hái	-11.8681
▁profession	-11.8688
▁burst	-11.8696
▁rộn	-11.8702
▁uốn	-11.8702
▁supplie	-11.8706
▁compromise	-11.8706
▁explosion	-11.8706
▁helicopter	-11.8706
▁philade	-11.8706
▁simplicity	-11.8706
▁temporar	-11.8706
▁treasure	-11.8706
▁turk	-11.8706
▁xộn	-11.8706
▁diagram	-11.8706
▁dominant	-11.8706
▁medication	-11.8706
▁neural	-11.8706
▁parasite	-11.8706
▁ceiling	-11.8706
▁attractive	-11.8706
▁output	-11.8706
▁búa	-11.8706
▁suburb	-11.8706
▁autonomous	-11.8707
▁traged	-11.8707
▁tired	-11.8708
▁pathway	-11.8708
▁degrad	-11.8709
▁kilo	-11.871
hop	-11.871
▁phế	-11.871
▁greek	-11.8711
▁siberia	-11.8711
▁celebrat	-11.8714
▁winni	-11.8714
▁mentor	-11.8717
▁uncertaint	-11.872
ướt	-11.8721
▁disabilit	-11.8722
cker	-11.8731
▁mood	-11.8736
▁carne	-11.8738
▁sunday	-11.874
▁introduc	-11.8743
eith	-11.8754
▁hunting	-11.8767
▁rice	-11.8768
▁repeated	-11.8769
uân	-11.8777
▁bend	-11.8805
▁scann	-11.8817
▁educat	-11.8822
case	-11.8833
free	-11.884
corn	-11.8841
▁3000	-11.8846
▁meta	-11.887
ử	-11.887
▁academ	-11.8872
▁fate	-11.8878
▁ná	-11.8892
▁instinct	-11.8914
▁apollo	-11.8914
▁bangladesh	-11.8914
▁benjamin	-11.8914
▁concentrate	-11.8914
▁disappoint	-11.8914
▁elizabeth	-11.8914
▁ethnic	-11.8914
▁puppet	-11.8914
▁resident	-11.8914
▁smooth	-11.8914
▁atlanta	-11.8914
▁comparison	-11.8914
▁fulfill	-11.8914
▁relax	-11.8914
▁tempt	-11.8914
▁champion	-11.8914
▁millenni	-11.8914
▁tokyo	-11.8914
▁khùng	-11.8914
▁cyber	-11.8915
inhabit	-11.8915
▁nonprofit	-11.8915
▁ủi	-11.8915
▁retirement	-11.8916
▁archive	-11.8917
▁elite	-11.8917
▁tragic	-11.8917
▁microbe	-11.8917
lphi	-11.8917
▁upload	-11.8921
▁highway	-11.8922
▁lean	-11.8923
diana	-11.8924
▁2.5	-11.8924
▁measurement	-11.8926
burgh	-11.8926
▁package	-11.8927
▁hẻ	-11.8928
▁singer	-11.8937
▁homeless	-11.8939
▁semi	-11.8957
▁pier	-11.8958
▁slip	-11.8979
▁experimental	-11.8987
▁vọ	-11.8996
▁stimulat	-11.9017
▁chóc	-11.9018
eller	-11.9018
70	-11.9028
level	-11.9031
▁prior	-11.9033
front	-11.9034
▁nhọ	-11.904
space	-11.9047
▁experienc	-11.9068
verbal	-11.9071
clock	-11.9078
▁fir	-11.9082
▁soldier	-11.9104
▁sport	-11.9118
▁doug	-11.9122
▁exhibit	-11.9124
▁1998	-11.9127
▁attribute	-11.9127
▁bướm	-11.9127
▁ceremon	-11.9127
▁cigarette	-11.9127
▁colombia	-11.9127
▁dialogue	-11.9127
▁dictator	-11.9127
▁division	-11.9127
▁frequent	-11.9127
▁matrix	-11.9127
▁parliament	-11.9127
▁virtue	-11.9127
▁anatom	-11.9127
▁favela	-11.9127
▁interrupt	-11.9127
▁leather	-11.9127
▁miserable	-11.9127
▁reserve	-11.9127
▁scoop	-11.9127
▁skull	-11.9127
▁poison	-11.9127
▁violin	-11.9127
▁routine	-11.9127
▁extension	-11.9127
▁forgive	-11.9127
▁choáng	-11.9127
▁thrill	-11.9127
▁tesla	-11.9128
▁kelly	-11.9128
▁consult	-11.9128
▁luther	-11.9128
▁electrode	-11.9129
▁dignit	-11.9129
▁globalization	-11.9131
▁mindset	-11.9132
▁agreement	-11.9135
▁kẽ	-11.9136
▁genetically	-11.9137
active	-11.9137
▁twist	-11.914
▁vần	-11.9141
scribe	-11.9149
▁1.2	-11.9154
▁lane	-11.9164
▁cute	-11.9192
utch	-11.9204
▁container	-11.9216
▁bali	-11.9228
▁programmer	-11.9238
▁determined	-11.9248
minute	-11.9264
drive	-11.9272
fred	-11.9291
▁electro	-11.9301
gru	-11.932
uộc	-11.932
▁cồn	-11.9324
mail	-11.9326
▁penguin	-11.9326
▁awkward	-11.9345
▁curriculum	-11.9345
▁diagnosi	-11.9345
▁enzyme	-11.9345
▁galapagos	-11.9345
▁hypothesis	-11.9345
▁inherent	-11.9345
▁innocent	-11.9345
▁lakota	-11.9345
▁microphone	-11.9345
▁muhammad	-11.9345
▁phthalate	-11.9345
▁schizophreni	-11.9345
▁temple	-11.9345
▁veteran	-11.9345
▁broadcast	-11.9345
▁philanthrop	-11.9345
▁possess	-11.9345
▁scream	-11.9345
▁collaborative	-11.9345
▁friday	-11.9345
▁tongue	-11.9345
▁turkey	-11.9345
▁terra	-11.9345
▁hallucination	-11.9345
▁neat	-11.9345
▁consistent	-11.9345
▁louis	-11.9346
▁captain	-11.9346
▁borrow	-11.9346
▁jackson	-11.9347
▁monster	-11.9347
▁honey	-11.9347
▁stole	-11.9347
▁pants	-11.9348
▁divers	-11.9349
▁highlight	-11.935
▁fastest	-11.9356
▁suggestion	-11.9361
▁server	-11.9364
▁helpful	-11.9366
▁luâ	-11.9367
cliff	-11.937
▁imager	-11.938
▁sink	-11.9382
▁broc	-11.9382
▁dịu	-11.9388
▁personaliz	-11.9406
ska	-11.9461
6,000	-11.9484
dollar	-11.9486
▁victor	-11.9488
▁wipe	-11.9504
▁qualit	-11.9525
▁sens	-11.953
▁sue	-11.9531
▁43	-11.9537
laughter	-11.9546
▁sườn	-11.9549
▁350	-11.9552
▁thắn	-11.9563
▁trọn	-11.9563
atory	-11.9563
kansas	-11.9567
▁unemploy	-11.9567
▁bhutan	-11.9567
▁breakthrough	-11.9567
▁domestic	-11.9567
▁flavor	-11.9567
▁michigan	-11.9567
▁nanopatch	-11.9567
▁nonviolen	-11.9567
▁recruit	-11.9567
▁reinvent	-11.9567
▁serving	-11.9567
▁smiling	-11.9567
▁recess	-11.9567
▁infant	-11.9567
▁maxim	-11.9567
▁minorit	-11.9567
▁túng	-11.9567
▁rỗi	-11.9567
▁naked	-11.9567
▁amaze	-11.9567
▁wedding	-11.9567
▁delay	-11.9567
▁skeptic	-11.9568
▁nurtur	-11.9568
lihood	-11.9569
▁tropic	-11.957
▁installation	-11.957
▁powerpoint	-11.957
▁peaceful	-11.9571
rail	-11.9571
▁silk	-11.9573
▁darkness	-11.9574
▁hán	-11.9575
▁nã	-11.9578
▁reef	-11.958
▁jess	-11.9582
▁chổ	-11.9583
coli	-11.9586
▁lú	-11.9587
▁30,000	-11.9594
▁insist	-11.9596
▁đục	-11.9597
▁fisher	-11.9615
▁dơi	-11.9618
▁believ	-11.962
▁statistical	-11.9624
▁determin	-11.9635
▁calm	-11.9641
ếch	-11.9656
▁viê	-11.9673
▁nhã	-11.9675
ronto	-11.9677
▁fertiliz	-11.9678
▁compete	-11.9691
nike	-11.9694
▁brave	-11.9709
▁describ	-11.9718
four	-11.9725
79	-11.9749
aware	-11.9751
▁rode	-11.978
hiếu	-11.9782
▁producer	-11.9785
▁180	-11.9786
▁combin	-11.979
▁vibrat	-11.9793
▁francis	-11.9793
▁arizona	-11.9794
▁breakfast	-11.9794
▁christophe	-11.9794
▁council	-11.9794
▁fabulous	-11.9794
▁lifespan	-11.9794
▁submit	-11.9794
▁transparent	-11.9794
▁beijing	-11.9794
▁heritage	-11.9794
▁suppress	-11.9794
▁gross	-11.9794
▁nepal	-11.9794
▁sudan	-11.9794
▁galler	-11.9794
▁domain	-11.9794
▁ecological	-11.9794
▁rachel	-11.9794
▁tendenc	-11.9794
▁basket	-11.9795
▁choosing	-11.9795
▁december	-11.9795
▁alarm	-11.9795
▁barbar	-11.9796
▁circulat	-11.9796
▁potter	-11.9796
▁cube	-11.9796
▁refrigerator	-11.9797
▁collaborator	-11.9797
▁recall	-11.9797
▁weekend	-11.9798
▁harness	-11.9798
▁warning	-11.9799
▁kiri	-11.9812
▁boil	-11.9817
▁wider	-11.9818
▁achiev	-11.9822
▁acknowledge	-11.9829
▁trễ	-11.9829
rút	-11.9832
eval	-11.9833
person	-11.9834
▁shak	-11.9844
▁neck	-11.9854
▁coat	-11.9865
▁neo	-11.9895
▁rope	-11.9917
▁slave	-11.9918
30	-11.9922
related	-11.9925
ected	-11.9934
grow	-11.9946
spring	-11.9946
▁releas	-11.9959
▁64	-11.9978
▁wrap	-11.9991
berry	-11.9996
▁emil	-12.0016
▁xế	-12.0022
airo	-12.0022
resolution	-12.0027
▁1996	-12.0027
▁censor	-12.0027
▁chimpanzee	-12.0027
▁contemporar	-12.0027
▁decrease	-12.0027
▁disagree	-12.0027
▁grandchild	-12.0027
▁mumbai	-12.0027
▁register	-12.0027
▁simulation	-12.0027
▁terrifying	-12.0027
▁vẩn	-12.0027
▁diamond	-12.0027
▁dẹp	-12.0027
▁filmmaker	-12.0027
▁enhance	-12.0027
▁luxur	-12.0027
▁strain	-12.0027
▁currenc	-12.0027
▁octo	-12.0027
▁insane	-12.0027
▁annoy	-12.0027
▁pursuit	-12.0027
▁spanish	-12.0027
▁ongoing	-12.0028
▁manual	-12.0028
▁impression	-12.0031
rapped	-12.0038
▁colli	-12.0039
54	-12.0043
▁200,000	-12.0047
▁upset	-12.0048
▁myceli	-12.0048
▁ego	-12.0051
▁glow	-12.0052
▁constraint	-12.0054
▁punch	-12.0056
▁teen	-12.0065
94	-12.0095
▁sms	-12.0097
orway	-12.0133
▁bil	-12.0179
fish	-12.0185
play	-12.0185
therland	-12.02
67	-12.0206
▁reporter	-12.0219
▁independen	-12.022
erlin	-12.0234
▁horizon	-12.0238
▁voca	-12.0242
29	-12.0245
▁jur	-12.0254
vity	-12.0259
▁97	-12.0259
▁lê	-12.026
▁circu	-12.0262
▁commodit	-12.0265
▁1995	-12.0265
▁automobile	-12.0265
▁confident	-12.0265
▁creator	-12.0265
▁expedition	-12.0265
▁palestinian	-12.0265
▁prosperity	-12.0265
▁testosterone	-12.0265
▁unprecedented	-12.0265
▁guinea	-12.0265
▁alaska	-12.0265
▁ôtô	-12.0265
▁compress	-12.0265
▁chamber	-12.0265
▁primari	-12.0265
▁awake	-12.0265
▁defeat	-12.0265
▁valid	-12.0265
▁bedroom	-12.0265
▁jeff	-12.0265
▁generous	-12.0266
▁ireland	-12.0266
▁1994	-12.0266
▁grasp	-12.0266
▁index	-12.0266
▁egyptian	-12.0266
▁contrar	-12.0266
▁historic	-12.0267
▁arise	-12.0267
▁artwork	-12.0268
▁urge	-12.0268
▁virút	-12.0268
▁homework	-12.0269
▁cookie	-12.0269
▁mask	-12.0271
▁tension	-12.0272
▁requirement	-12.0275
▁span	-12.0275
▁doodl	-12.0277
version	-12.028
▁factories	-12.0287
ductive	-12.0289
animate	-12.0301
▁maria	-12.0308
▁entit	-12.0316
▁crew	-12.0321
ruce	-12.0327
▁lotter	-12.0344
uction	-12.0359
▁việ	-12.0389
▁clon	-12.039
hủ	-12.0399
19	-12.0407
produc	-12.0427
sexual	-12.0428
face	-12.0446
fold	-12.0453
▁wrapp	-12.0465
▁reconstruct	-12.0468
▁navigate	-12.0475
▁automat	-12.0485
14	-12.0492
▁tớ	-12.0497
ague	-12.0499
▁communi	-12.0505
riving	-12.0505
▁republic	-12.0507
▁virgin	-12.0508
▁anticipate	-12.0509
▁beethoven	-12.0509
▁despair	-12.0509
▁enterprise	-12.0509
▁fragile	-12.0509
▁fragment	-12.0509
▁garbage	-12.0509
▁glimpse	-12.0509
▁grandparents	-12.0509
▁hierarch	-12.0509
▁neuroscientist	-12.0509
▁pancrea	-12.0509
▁signature	-12.0509
▁stereotype	-12.0509
▁syndrome	-12.0509
▁unconscious	-12.0509
▁bloom	-12.0509
▁captcha	-12.0509
▁leverage	-12.0509
▁craig	-12.0509
▁snake	-12.0509
▁cotton	-12.0509
▁dawn	-12.0509
▁thrive	-12.0509
▁romo	-12.0509
▁brutal	-12.0509
▁legend	-12.0509
pleasant	-12.051
▁lord	-12.0511
▁bump	-12.0511
▁1.3	-12.0511
▁gluc	-12.0511
▁inmate	-12.0512
▁nhí	-12.0514
▁cit	-12.0517
titus	-12.052
▁portion	-12.052
bell	-12.0532
▁disable	-12.0539
izarr	-12.0542
known	-12.0564
ference	-12.059
▁gonn	-12.0592
▁replicate	-12.0598
▁shit	-12.0619
▁hungar	-12.0644
▁ironic	-12.0645
▁integr	-12.0654
alti	-12.0674
shot	-12.0685
▁xơ	-12.0702
▁institutional	-12.0708
opper	-12.0711
▁rotat	-12.0719
▁architectur	-12.0745
▁manipulate	-12.0756
▁pollut	-12.0756
competitive	-12.0759
vascular	-12.0759
▁expansi	-12.0759
▁flourish	-12.0759
▁himalaya	-12.0759
▁hybrid	-12.0759
▁initiative	-12.0759
▁legislati	-12.0759
▁mathematician	-12.0759
▁mcdonald	-12.0759
▁neutral	-12.0759
▁pharmaceutical	-12.0759
▁rethink	-12.0759
▁sacred	-12.0759
▁shredd	-12.0759
▁spectacular	-12.0759
▁storytelling	-12.0759
▁thylacine	-12.0759
▁tunisia	-12.0759
▁ubiquitous	-12.0759
▁flexibl	-12.0759
▁uniform	-12.0759
▁leaf	-12.0759
▁restrict	-12.0759
▁casual	-12.0759
▁jefferson	-12.0759
▁outrage	-12.0759
▁swiss	-12.0759
▁refine	-12.0759
▁backyard	-12.0759
▁jewish	-12.0759
▁lesterland	-12.0759
▁europa	-12.076
▁bulb	-12.076
▁assignment	-12.076
▁shang	-12.076
▁1975	-12.0761
▁subway	-12.0761
▁twenty	-12.0763
▁intent	-12.0766
▁workplace	-12.0767
▁passage	-12.0768
▁jew	-12.0769
▁dì	-12.0772
▁wol	-12.0776
hận	-12.0779
▁metric	-12.0786
▁34	-12.0789
▁update	-12.0793
▁bỉ	-12.0794
▁trinh	-12.0806
▁brit	-12.0819
udge	-12.0837
lium	-12.0837
▁52	-12.0841
volt	-12.0875
tched	-12.0919
tune	-12.0921
script	-12.0933
third	-12.0934
controll	-12.0934
three	-12.0935
percent	-12.0936
sleep	-12.0937
heart	-12.0937
▁commit	-12.0943
eye	-12.0946
manda	-12.0953
ữ	-12.0976
enix	-12.0978
conception	-12.0986
▁flipp	-12.0989
ectar	-12.0989
▁humbl	-12.1007
▁manifest	-12.1015
▁amateur	-12.1015
▁cylinder	-12.1015
▁membrane	-12.1015
▁mexican	-12.1015
▁nairobi	-12.1015
▁pandemic	-12.1015
▁potato	-12.1015
▁shepherd	-12.1015
▁shrimp	-12.1015
▁simultaneous	-12.1015
▁enlighten	-12.1015
▁drown	-12.1015
▁oyster	-12.1015
▁ministr	-12.1015
▁reproducti	-12.1015
▁pipeline	-12.1015
▁crush	-12.1015
▁shore	-12.1015
▁indoor	-12.1016
▁flaw	-12.1016
▁margar	-12.1016
▁aircraft	-12.1016
▁denial	-12.1018
▁nerd	-12.1019
▁appearance	-12.102
▁examine	-12.102
▁static	-12.102
▁junk	-12.1023
▁pride	-12.1025
▁cnn	-12.1033
▁convey	-12.1034
▁valve	-12.1036
▁strategic	-12.1036
nhồi	-12.1038
25	-12.1039
▁blogger	-12.1042
▁cuba	-12.1046
▁huh	-12.1049
▁auto	-12.1062
▁specialist	-12.1065
▁geometr	-12.1077
▁embrac	-12.1086
asca	-12.1109
▁kite	-12.1115
sight	-12.1135
▁41	-12.1148
▁communicat	-12.116
▁panic	-12.1177
▁mechanic	-12.1179
quarter	-12.1197
organiz	-12.1198
▁đun	-12.1199
▁nhăn	-12.1217
81	-12.122
glasses	-12.1231
pack	-12.1239
▁burie	-12.1257
▁cooper	-12.127
▁retire	-12.1277
▁contribut	-12.1277
▁augment	-12.1278
▁bertie	-12.1278
▁catholic	-12.1278
▁confirm	-12.1278
▁divorce	-12.1278
▁endanger	-12.1278
▁fraction	-12.1278
▁girlfriend	-12.1278
▁gorgeous	-12.1278
▁intensive	-12.1278
▁millimeter	-12.1278
▁nhộn	-12.1278
▁spontaneous	-12.1278
▁stigma	-12.1278
▁structural	-12.1278
▁transmission	-12.1278
▁ukrain	-12.1278
▁ultrasound	-12.1278
▁pigeon	-12.1278
▁geek	-12.1278
▁taylor	-12.1278
▁annual	-12.1278
▁bathroom	-12.1278
▁thirty	-12.1278
▁sùng	-12.1278
wandering	-12.1279
▁passive	-12.1279
▁tackle	-12.1279
▁towel	-12.1279
▁embodi	-12.1279
▁troop	-12.128
▁juice	-12.128
▁venture	-12.1281
▁spray	-12.1281
▁friendship	-12.1281
abad	-12.1281
ouver	-12.1282
▁fence	-12.1283
▁soap	-12.1287
harle	-12.1287
▁goat	-12.1289
▁thà	-12.13
▁seventh	-12.1303
▁copie	-12.1304
▁sake	-12.1306
zk	-12.1323
▁snap	-12.1323
gill	-12.1324
▁jr	-12.1326
▁ngạ	-12.1328
vinci	-12.1332
▁astronomer	-12.135
▁160	-12.1358
75	-12.1361
▁thề	-12.137
▁sara	-12.1379
fel	-12.1383
▁explorer	-12.1386
ruise	-12.1404
▁lé	-12.1424
▁125	-12.1439
▁pursue	-12.1444
▁moz	-12.145
ibera	-12.1454
load	-12.1456
▁democrac	-12.1468
▁astronom	-12.1475
▁shap	-12.1488
kel	-12.1497
▁tasmania	-12.1505
cost	-12.1508
▁statistic	-12.1515
▁antibod	-12.1533
▁pond	-12.1533
▁đọ	-12.1542
▁teenage	-12.1544
▁chemist	-12.1548
osphere	-12.1548
▁autonom	-12.1548
▁blogg	-12.1548
▁aggressive	-12.1548
▁anesthesi	-12.1548
▁commission	-12.1548
▁devastating	-12.1548
▁disconnect	-12.1548
▁encode	-12.1548
▁genocide	-12.1548
▁mitchell	-12.1548
▁occupy	-12.1548
▁proposal	-12.1548
▁receptor	-12.1548
▁serotonin	-12.1548
▁sponsor	-12.1548
▁swallow	-12.1548
▁sweeney	-12.1548
▁trajector	-12.1548
▁contagio	-12.1548
▁transcript	-12.1548
▁tomato	-12.1549
▁accus	-12.1549
▁steer	-12.1549
▁flick	-12.1549
▁oven	-12.155
▁texture	-12.155
wick	-12.155
▁sensation	-12.1551
▁dumb	-12.1551
▁marrow	-12.1551
▁elementary	-12.1553
▁digitiz	-12.1553
▁investigation	-12.1554
▁cooperate	-12.1554
▁fda	-12.1556
▁canyon	-12.1557
satisfact	-12.1566
▁foxo	-12.1567
▁philosophical	-12.1567
▁ryan	-12.1569
▁cẩu	-12.1575
▁occasion	-12.1581
rump	-12.1595
mond	-12.1615
▁rank	-12.1629
bule	-12.1646
▁kiề	-12.1658
▁analyz	-12.1671
ushi	-12.1699
▁hở	-12.1701
quat	-12.1725
activat	-12.1727
▁muôn	-12.1728
▁fur	-12.1731
ngalo	-12.1742
▁explode	-12.1743
second	-12.1746
social	-12.1746
stock	-12.1753
▁rebel	-12.1764
wear	-12.1778
▁transcend	-12.1795
otto	-12.1804
▁stabilit	-12.1809
utter	-12.1816
▁addict	-12.1824
▁scholar	-12.1826
surveillance	-12.1826
▁1992	-12.1826
▁cambodia	-12.1826
▁celebrit	-12.1826
▁constitution	-12.1826
▁elevator	-12.1826
▁grocer	-12.1826
▁immense	-12.1826
▁impulse	-12.1826
▁katrina	-12.1826
▁lawrence	-12.1826
▁microrna	-12.1826
▁mysterious	-12.1826
▁oregon	-12.1826
▁pantheon	-12.1826
▁primitive	-12.1826
▁purple	-12.1826
▁scaffold	-12.1826
▁symphon	-12.1826
▁enthusias	-12.1826
▁nuối	-12.1826
▁stefan	-12.1826
▁asteroid	-12.1826
▁align	-12.1826
▁gaza	-12.1826
▁fetus	-12.1826
▁gehr	-12.1826
scope	-12.1827
▁reproduce	-12.1827
▁strict	-12.1827
▁preference	-12.1828
moud	-12.1828
insky	-12.183
▁replacement	-12.1831
▁fbi	-12.1832
▁minus	-12.1833
rô	-12.1835
▁autist	-12.1836
▁marry	-12.1838
▁invad	-12.1844
▁max	-12.1853
▁payment	-12.1853
▁germ	-12.1862
▁navigat	-12.1865
▁vocal	-12.1869
nfl	-12.1875
▁liberat	-12.1877
rahu	-12.188
▁unhapp	-12.1903
▁documentar	-12.1909
▁spit	-12.192
step	-12.1923
bular	-12.1932
▁82	-12.1953
seas	-12.1989
interest	-12.2031
&	-12.2031
raham	-12.2056
▁promot	-12.2093
iberia	-12.2107
adequate	-12.2112
▁fibonacci	-12.2112
▁guerrilla	-12.2112
▁improvisation	-12.2112
▁intimate	-12.2112
▁knife	-12.2112
▁physiolog	-12.2112
▁rehabilitati	-12.2112
▁stirling	-12.2112
▁sweep	-12.2112
▁threshold	-12.2112
▁administrati	-12.2112
▁cultivat	-12.2112
▁renewable	-12.2112
▁genuine	-12.2112
▁strand	-12.2112
▁saturn	-12.2112
▁serge	-12.2112
▁marvel	-12.2112
▁sỏi	-12.2112
▁progressive	-12.2112
▁caltech	-12.2112
▁proposition	-12.2112
▁boost	-12.2113
▁regenerate	-12.2113
▁redesign	-12.2113
▁courageous	-12.2113
▁chronic	-12.2113
▁export	-12.2113
▁confine	-12.2113
▁jewel	-12.2114
▁flee	-12.2114
▁viral	-12.2114
▁rabbi	-12.2114
▁hmm	-12.2115
▁pipe	-12.2115
▁odor	-12.2115
shire	-12.2116
▁banana	-12.2116
▁bleed	-12.2117
▁magician	-12.2117
▁harmon	-12.2121
▁12,000	-12.2123
▁manner	-12.2125
ripped	-12.2125
lux	-12.2126
▁carib	-12.2126
▁campus	-12.2127
600	-12.2134
▁terror	-12.2154
▁intel	-12.2171
▁axe	-12.2182
▁ucl	-12.2188
▁hó	-12.221
▁promis	-12.2214
rcul	-12.2225
▁salar	-12.2237
66	-12.2289
▁customiz	-12.2323
▁mario	-12.2366
axit	-12.2381
holm	-12.2385
▁lử	-12.2395
shape	-12.2397
vaccin	-12.2404
▁advent	-12.2405
▁1997	-12.2406
▁adolescent	-12.2406
▁avatar	-12.2406
▁encyclopedia	-12.2406
▁eradicate	-12.2406
▁explicit	-12.2406
▁leopard	-12.2406
▁magnificent	-12.2406
▁matthew	-12.2406
▁mutual	-12.2406
▁oakland	-12.2406
▁subtitle	-12.2406
▁venezuela	-12.2406
▁analytic	-12.2406
▁charming	-12.2406
▁drift	-12.2406
▁goliath	-12.2406
▁intrinsic	-12.2406
▁pepsi	-12.2406
▁criteri	-12.2406
▁vacation	-12.2406
▁helmet	-12.2406
▁mineral	-12.2406
▁libert	-12.2406
▁bombsight	-12.2406
▁neocort	-12.2406
▁imitat	-12.2406
▁obtain	-12.2406
▁nichol	-12.2407
otherap	-12.2407
▁photoshop	-12.2407
▁displace	-12.2408
▁altitude	-12.2409
▁regenerati	-12.2409
▁khử	-12.2409
▁canvas	-12.2409
▁interpretation	-12.241
barack	-12.241
▁quăng	-12.2411
▁cruel	-12.2411
▁adaptation	-12.2412
▁blindness	-12.2414
▁downtown	-12.2415
▁restorati	-12.2415
▁stake	-12.2416
▁socio	-12.2416
▁detection	-12.2417
▁1800	-12.2418
▁loose	-12.2419
▁educator	-12.2423
▁nail	-12.2425
▁shout	-12.2426
▁cartoonist	-12.2427
▁sew	-12.2435
▁replac	-12.2436
▁horizontal	-12.244
▁survivor	-12.2454
ggle	-12.2455
▁summarize	-12.2458
▁ngả	-12.2476
osity	-12.2477
▁sanit	-12.2545
ermit	-12.2572
lept	-12.2586
▁900	-12.2586
▁cò	-12.261
plus	-12.2628
speech	-12.2628
function	-12.2628
found	-12.2629
sense	-12.2629
bốt	-12.2638
▁starv	-12.265
marin	-12.2664
▁influen	-12.2701
▁assign	-12.2707
bean	-12.2707
▁dispos	-12.2708
▁appreciati	-12.2709
▁chuộng	-12.2709
▁cocktail	-12.2709
▁correlation	-12.2709
▁elevate	-12.2709
▁encouraging	-12.2709
▁expense	-12.2709
▁odysse	-12.2709
▁permission	-12.2709
▁remittance	-12.2709
▁sibling	-12.2709
▁transistor	-12.2709
▁vacuum	-12.2709
▁chuối	-12.2709
▁counsel	-12.2709
▁saturday	-12.2709
▁straw	-12.2709
▁inherit	-12.2709
▁warrior	-12.2709
▁meditation	-12.2709
▁theoretical	-12.2709
▁dời	-12.2709
▁optical	-12.2709
▁triangle	-12.2709
▁italian	-12.271
▁transit	-12.271
▁royal	-12.271
▁republican	-12.2711
▁foster	-12.2711
▁mustache	-12.2711
▁improvise	-12.2712
▁feminist	-12.2712
▁nhược	-12.2713
▁vibration	-12.2713
▁frontier	-12.2716
▁gord	-12.2716
▁penis	-12.2717
▁reflection	-12.272
▁meyer	-12.2723
▁xẻ	-12.2725
▁regulate	-12.2727
▁chord	-12.2735
▁beep	-12.2748
▁lonel	-12.2792
▁purchase	-12.2822
▁stimul	-12.2875
▁translat	-12.2878
▁juan	-12.2887
▁rib	-12.2887
tub	-12.29
gentleman	-12.2919
▁cớ	-12.2919
▁bamb	-12.2921
▁preserv	-12.2923
weight	-12.2941
▁trauma	-12.2946
▁suố	-12.2979
▁practic	-12.2986
▁plea	-12.2988
▁convention	-12.299
▁corrupt	-12.3019
▁batteries	-12.3022
▁caregiver	-12.3022
▁deforest	-12.3022
▁envelope	-12.3022
▁episode	-12.3022
▁graffiti	-12.3022
▁historian	-12.3022
▁irrational	-12.3022
▁meadow	-12.3022
▁visceral	-12.3022
▁minimum	-12.3022
▁tribal	-12.3022
▁bonnie	-12.3022
▁gallon	-12.3022
▁blob	-12.3022
▁enforce	-12.3022
▁oscar	-12.3022
▁screw	-12.3022
▁michel	-12.3022
▁tibet	-12.3022
▁loving	-12.3022
▁polymer	-12.3022
▁exposure	-12.3022
▁scheme	-12.3023
▁utilit	-12.3023
▁drunk	-12.3023
▁ỏi	-12.3023
▁inflation	-12.3024
▁contest	-12.3024
▁approximate	-12.3025
▁addiction	-12.3025
▁spare	-12.3025
▁negotiation	-12.3026
▁hanna	-12.3028
▁assure	-12.3029
kerry	-12.3031
▁dragg	-12.3031
▁yale	-12.3032
▁hint	-12.3033
▁selfish	-12.3035
▁lobe	-12.3037
▁pran	-12.3045
▁referr	-12.3046
▁450	-12.3058
▁robbi	-12.3073
▁heavi	-12.3085
uả	-12.3123
urgenc	-12.3123
▁graduat	-12.3133
▁fundrais	-12.3134
ogue	-12.3168
▁visualize	-12.3174
offend	-12.3195
▁democratiz	-12.3196
style	-12.3222
archie	-12.3232
world	-12.3263
libr	-12.3264
▁summar	-12.329
▁guid	-12.3291
cern	-12.334
▁crap	-12.3343
▁1989	-12.3344
▁ambulance	-12.3344
▁authoritarian	-12.3344
▁canadian	-12.3344
▁commut	-12.3344
▁creep	-12.3344
▁deliberate	-12.3344
▁fantasy	-12.3344
▁jamaica	-12.3344
▁nộp	-12.3344
▁reclaim	-12.3344
▁secular	-12.3344
▁stead	-12.3344
▁stomach	-12.3344
▁syringe	-12.3344
▁tennessee	-12.3344
▁yeast	-12.3344
▁auditor	-12.3344
▁inhibit	-12.3344
▁octopus	-12.3344
▁storyteller	-12.3344
▁xốp	-12.3344
▁famine	-12.3344
▁remix	-12.3344
▁cưỡi	-12.3344
,200	-12.3344
▁generic	-12.3344
▁spike	-12.3344
▁pipa	-12.3344
▁anthon	-12.3344
▁tinker	-12.3345
▁ngoạn	-12.3345
▁couch	-12.3345
▁forbid	-12.3345
▁ariel	-12.3346
▁78	-12.3346
▁steam	-12.3346
ntact	-12.3346
▁destination	-12.3347
gestion	-12.3348
▁russe	-12.3349
▁synthesize	-12.3349
▁civilian	-12.3349
▁veil	-12.3349
▁delete	-12.3349
▁advocate	-12.335
▁110	-12.3351
▁modest	-12.3352
▁grabb	-12.3353
và	-12.3353
▁coverage	-12.3353
▁gramma	-12.3359
hhh	-12.3363
300	-12.3364
▁norman	-12.3365
▁realization	-12.3368
▁governor	-12.3373
▁custom	-12.3379
▁consist	-12.3394
▁justif	-12.3409
▁collaborate	-12.3421
▁subsid	-12.3426
hiên	-12.344
▁mash	-12.3454
▁hug	-12.3461
racing	-12.3511
▁triple	-12.3514
▁criticiz	-12.3518
▁bask	-12.3553
untu	-12.3576
profit	-12.3596
efficient	-12.3596
hẹn	-12.3613
elect	-12.3647
▁compute	-12.3672
▁accura	-12.3676
▁astronaut	-12.3677
▁aurora	-12.3677
▁calculator	-12.3677
▁delicious	-12.3677
▁diagnostic	-12.3677
▁executive	-12.3677
▁humanitarian	-12.3677
▁orleans	-12.3677
▁pennsylvania	-12.3677
▁sebastia	-12.3677
▁simulate	-12.3677
▁skeleton	-12.3677
▁striking	-12.3677
▁tahrir	-12.3677
▁tedwomen	-12.3677
▁territor	-12.3677
▁descend	-12.3678
▁incorporat	-12.3678
▁anxious	-12.3678
▁butterfl	-12.3678
▁contaminat	-12.3678
▁fifty	-12.3678
▁hopkins	-12.3678
▁libya	-12.3678
▁đạm	-12.3678
▁arkansas	-12.3678
▁pirate	-12.3678
▁gamma	-12.3678
▁wilson	-12.3678
▁ahmed	-12.3678
▁multiply	-12.3678
▁vivid	-12.3678
▁kilogram	-12.3678
▁pearl	-12.3678
▁presum	-12.3678
inux	-12.3678
▁scrap	-12.3678
▁naive	-12.3678
▁guardian	-12.3679
▁nazi	-12.368
▁kiva	-12.368
▁unfold	-12.368
▁lump	-12.368
▁commandment	-12.3683
▁distinction	-12.3683
▁stimulation	-12.3684
▁vỉ	-12.3686
▁probe	-12.3688
▁therapist	-12.3693
▁whip	-12.3694
▁macro	-12.3697
▁rust	-12.3702
▁zoo	-12.3722
▁malco	-12.3743
human	-12.3753
▁mira	-12.3762
▁democrat	-12.3804
44	-12.3812
▁cosmolog	-12.3826
▁deposit	-12.3846
▁productiv	-12.3848
▁esse	-12.3864
ikea	-12.3924
▁whit	-12.3929
▁dependenc	-12.3933
piece	-12.3942
built	-12.3942
ika	-12.3944
stair	-12.3967
▁significan	-12.3977
▁vự	-12.4015
moor	-12.4018
▁buddha	-12.4022
▁buddhis	-12.4022
▁chernobyl	-12.4022
▁cybercriminal	-12.4022
▁deficit	-12.4022
▁dilemma	-12.4022
▁embryo	-12.4022
▁fireflies	-12.4022
▁guitar	-12.4022
▁immigrant	-12.4022
▁introvert	-12.4022
▁invitation	-12.4022
▁migrant	-12.4022
▁obsolet	-12.4022
▁peanut	-12.4022
▁pepper	-12.4022
▁settlement	-12.4022
▁sioux	-12.4022
▁substantial	-12.4022
▁supreme	-12.4022
▁unfair	-12.4022
▁voyager	-12.4022
▁connecticut	-12.4022
▁orgasm	-12.4022
▁premise	-12.4022
▁sympath	-12.4022
▁trivial	-12.4022
▁gớm	-12.4022
▁slope	-12.4022
▁retail	-12.4022
▁intervene	-12.4022
▁brenda	-12.4022
▁ecology	-12.4023
▁selective	-12.4023
▁intersection	-12.4023
▁linguist	-12.4023
▁distort	-12.4023
▁bonus	-12.4023
▁biodiversity	-12.4024
▁arrangement	-12.4024
▁visualization	-12.4024
▁unsee	-12.4024
▁trek	-12.4025
lapse	-12.4025
▁dennis	-12.4026
▁translator	-12.403
heim	-12.403
▁decorat	-12.4031
▁grape	-12.4049
▁dub	-12.4059
▁exot	-12.4063
▁discriminati	-12.407
▁greg	-12.4071
▁neurological	-12.4079
▁immortal	-12.4093
traumatic	-12.4106
uyễn	-12.4115
heid	-12.4118
▁shoe	-12.4136
▁scu	-12.414
▁phớ	-12.4209
háo	-12.4275
blanc	-12.4294
carbon	-12.4299
▁nhả	-12.4306
beat	-12.4339
▁patholog	-12.4359
oxy	-12.436
▁thermo	-12.4367
▁mathematica	-12.4373
finite	-12.4376
▁amsterdam	-12.4379
▁apologiz	-12.4379
▁arbitrar	-12.4379
▁buzz	-12.4379
▁calendar	-12.4379
▁cathedral	-12.4379
▁crawl	-12.4379
▁freud	-12.4379
▁guatemala	-12.4379
▁jellyfish	-12.4379
▁mammograph	-12.4379
▁norwegian	-12.4379
▁occupation	-12.4379
▁parachute	-12.4379
▁pencil	-12.4379
▁rezero	-12.4379
▁schedule	-12.4379
▁stabilize	-12.4379
▁welfare	-12.4379
▁depict	-12.4379
▁encrypt	-12.4379
▁envision	-12.4379
▁ladder	-12.4379
▁optimiz	-12.4379
▁smash	-12.4379
▁impair	-12.4379
▁resembl	-12.4379
▁temper	-12.4379
▁nightmare	-12.438
▁jungle	-12.438
▁lemon	-12.438
▁crank	-12.438
▁yell	-12.438
▁proceed	-12.438
▁mahat	-12.438
▁lanka	-12.438
▁oppress	-12.438
▁blink	-12.438
▁conceptual	-12.4381
▁introduction	-12.4381
▁fault	-12.4381
▁minimal	-12.4381
▁loyal	-12.4381
▁bono	-12.4381
▁strat	-12.4382
▁xị	-12.4383
▁anthropologist	-12.4383
▁marshal	-12.4384
▁fungi	-12.4385
ndura	-12.4387
▁sync	-12.4392
atops	-12.4393
▁flap	-12.4397
▁conserv	-12.4402
▁cardio	-12.4427
▁packag	-12.4434
▁poke	-12.4449
change	-12.4483
▁geograph	-12.4521
koko	-12.463
income	-12.4669
culture	-12.4669
▁thốn	-12.4746
▁femini	-12.4749
▁1986	-12.475
▁assessment	-12.475
▁bioluminescen	-12.475
▁cabinet	-12.475
▁charlotte	-12.475
▁exhaust	-12.475
▁exquisite	-12.475
▁idiot	-12.475
▁multinational	-12.475
▁netflix	-12.475
▁reinforce	-12.475
▁reputation	-12.475
▁revelation	-12.475
▁sovereign	-12.475
▁squeeze	-12.475
▁tsunami	-12.475
compensat	-12.475
▁absence	-12.475
▁bucket	-12.475
▁conscience	-12.475
▁endeavor	-12.475
▁monument	-12.475
▁papua	-12.475
▁prosecut	-12.475
▁railway	-12.475
▁shatter	-12.475
▁suýt	-12.475
▁stadium	-12.475
▁uncover	-12.475
▁antenna	-12.475
▁excess	-12.475
▁quấn	-12.475
▁bonnet	-12.475
▁funeral	-12.475
▁bypass	-12.475
▁holiday	-12.475
▁glue	-12.475
▁superior	-12.475
▁opposition	-12.475
jev	-12.475
▁progeri	-12.475
▁dentist	-12.475
▁oops	-12.475
▁achill	-12.475
▁league	-12.4751
▁sidewalk	-12.4751
▁relief	-12.4751
▁rubber	-12.4751
▁lethal	-12.4751
▁workshop	-12.4751
▁novelty	-12.4751
▁hammer	-12.4752
▁tactic	-12.4753
▁slate	-12.4759
▁candle	-12.4763
▁melod	-12.477
▁corti	-12.4771
▁fuse	-12.4773
▁overlap	-12.4786
ahama	-12.4819
lima	-12.4892
▁paradi	-12.4909
quality	-12.4921
▁env	-12.4949
section	-12.4974
48	-12.4975
▁gentle	-12.5022
month	-12.5058
▁constrain	-12.5089
▁psychiatr	-12.5128
▁differ	-12.5133
▁drama	-12.5134
▁hirsh	-12.5134
▁illuminati	-12.5134
disciplinar	-12.5134
▁acoustic	-12.5134
▁artifact	-12.5134
▁browser	-12.5134
▁catadore	-12.5134
▁configuration	-12.5134
▁default	-12.5134
▁dismiss	-12.5134
▁estrogen	-12.5134
▁exponential	-12.5134
▁horrifi	-12.5134
▁innovator	-12.5134
▁intimacy	-12.5134
▁irrelevan	-12.5134
▁jacque	-12.5134
▁mammogram	-12.5134
▁pedestrian	-12.5134
▁persuade	-12.5134
▁picasso	-12.5134
▁prospect	-12.5134
▁protocol	-12.5134
▁tamiflu	-12.5134
▁zipcar	-12.5134
▁microblog	-12.5134
▁unveil	-12.5134
▁hiroshi	-12.5134
▁reddit	-12.5134
▁regain	-12.5134
▁pubert	-12.5134
▁orphan	-12.5135
▁spear	-12.5135
▁outdoor	-12.5135
▁toraja	-12.5135
▁conquer	-12.5135
▁heather	-12.5135
▁squid	-12.5135
▁virut	-12.5135
▁calculating	-12.5135
▁sneak	-12.5135
▁subjective	-12.5135
▁burger	-12.5135
▁brook	-12.5135
▁infectious	-12.5135
▁superpower	-12.5136
▁mosque	-12.5136
▁moham	-12.5137
▁posture	-12.5138
▁quầy	-12.5139
▁insert	-12.5142
ennis	-12.5157
▁java	-12.5162
▁cycl	-12.5215
▁senat	-12.5253
▁sequenc	-12.5279
angle	-12.5293
▁demonstrat	-12.5304
▁bacteri	-12.531
▁reliabl	-12.5327
▁replicat	-12.5388
▁decid	-12.5434
▁skyp	-12.5436
count	-12.5453
effective	-12.5454
▁laborator	-12.5454
vít	-12.5468
ggy	-12.552
galactic	-12.5534
▁accompani	-12.5534
▁beekeeper	-12.5534
▁buffet	-12.5534
▁contemplat	-12.5534
▁deception	-12.5534
▁execute	-12.5534
▁extensive	-12.5534
▁festival	-12.5534
▁fluctuat	-12.5534
▁genomic	-12.5534
▁glorious	-12.5534
▁haunt	-12.5534
▁horror	-12.5534
▁lawsuit	-12.5534
▁massachusetts	-12.5534
▁neglect	-12.5534
▁powder	-12.5534
▁principal	-12.5534
▁propagand	-12.5534
▁province	-12.5534
▁reservation	-12.5534
▁retrofit	-12.5534
▁undergraduate	-12.5534
▁whisper	-12.5534
▁beneficia	-12.5534
▁erotic	-12.5534
▁innovate	-12.5534
▁polite	-12.5534
▁volcano	-12.5534
▁steward	-12.5534
▁shrink	-12.5534
▁gamble	-12.5534
▁alumin	-12.5534
▁phiện	-12.5535
▁gót	-12.5535
▁generator	-12.5535
▁stumbl	-12.5535
▁adaptive	-12.5535
▁eeg	-12.5535
▁tởm	-12.5535
▁cooperative	-12.5535
▁mellon	-12.5535
▁notebook	-12.5535
▁galil	-12.5535
violet	-12.5535
▁legitimate	-12.5535
▁owl	-12.5535
▁coincidence	-12.5535
▁genital	-12.5535
▁shelve	-12.5535
▁grann	-12.5536
▁inflat	-12.5536
▁shove	-12.5538
shmi	-12.5538
▁psychiatrist	-12.5541
▁patien	-12.5558
cumen	-12.558
▁1.4	-12.5602
ugg	-12.5764
corp	-12.5781
minded	-12.5809
▁reflectiv	-12.5848
conflict	-12.587
massive	-12.587
economic	-12.587
school	-12.587
course	-12.587
shift	-12.5871
spread	-12.5871
▁ruf	-12.5939
plex	-12.5944
hời	-12.5944
▁arrange	-12.5949
▁sculpt	-12.5951
▁1,1	-12.5951
▁adolescence	-12.5951
▁athletic	-12.5951
▁bướu	-12.5951
▁cockroach	-12.5951
▁corridor	-12.5951
▁diarrhea	-12.5951
▁exclusive	-12.5951
▁extremist	-12.5951
▁illinois	-12.5951
▁imperative	-12.5951
▁optimal	-12.5951
▁penicillin	-12.5951
▁pesticide	-12.5951
▁pittsburgh	-12.5951
▁roosevelt	-12.5951
▁savanna	-12.5951
▁splashy	-12.5951
▁statue	-12.5951
▁thorough	-12.5951
▁turtle	-12.5951
▁underestimate	-12.5951
▁unpredictab	-12.5951
▁vagina	-12.5951
▁compil	-12.5951
▁exaggerat	-12.5951
▁misunderst	-12.5951
▁cochlea	-12.5951
▁composition	-12.5951
▁debri	-12.5951
▁postcard	-12.5951
▁cardiac	-12.5951
▁erect	-12.5951
▁stereo	-12.5951
▁webcam	-12.5951
▁asthma	-12.5951
▁problematic	-12.5951
▁mundan	-12.5951
▁dispers	-12.5951
▁scholarship	-12.5952
▁bonobo	-12.5952
▁dissolv	-12.5952
▁giun	-12.5952
▁1965	-12.5952
▁decode	-12.5952
▁declare	-12.5953
bureaucrat	-12.5955
conceive	-12.5955
▁memorize	-12.5958
▁pyth	-12.5963
▁behold	-12.5974
▁patric	-12.5996
nthia	-12.6002
▁dissect	-12.6038
50,000	-12.6039
friendl	-12.6107
locate	-12.6118
▁resilien	-12.6121
broad	-12.6305
positive	-12.6305
group	-12.6305
frame	-12.6306
▁enabl	-12.6335
ưới	-12.6353
▁precis	-12.6373
▁numb	-12.6377
▁bureau	-12.6382
divid	-12.6384
▁cerebr	-12.6386
▁1982	-12.6386
▁articulate	-12.6386
▁catastrophic	-12.6386
▁charcoal	-12.6386
▁eternal	-12.6386
▁gabriel	-12.6386
▁hurricane	-12.6386
▁illustration	-12.6386
▁maneuver	-12.6386
▁orangutan	-12.6386
▁pathogen	-12.6386
▁peculiar	-12.6386
▁philippine	-12.6386
▁pragmati	-12.6386
▁separation	-12.6386
▁sufficient	-12.6386
▁supercomputer	-12.6386
▁alphabet	-12.6386
▁cinema	-12.6386
▁dispute	-12.6386
▁madagas	-12.6386
▁symbio	-12.6386
▁unleash	-12.6386
▁cease	-12.6386
▁collage	-12.6386
▁kindergart	-12.6386
▁phillip	-12.6386
▁slogan	-12.6386
▁flesh	-12.6386
▁surgical	-12.6386
muddi	-12.6386
▁veloci	-12.6386
▁algae	-12.6386
▁fmri	-12.6386
▁shuttle	-12.6386
▁collision	-12.6386
▁inspect	-12.6386
▁cream	-12.6386
▁laundr	-12.6386
▁committee	-12.6386
▁resonate	-12.6386
▁carpet	-12.6386
▁prophet	-12.6386
plankton	-12.6386
▁suitcase	-12.6386
▁pension	-12.6386
www	-12.6387
▁devise	-12.6387
frost	-12.6389
monia	-12.6389
collider	-12.6392
skirt	-12.6393
▁calci	-12.6401
▁resonan	-12.6409
▁differentiate	-12.6414
ublin	-12.644
nmark	-12.6442
regulat	-12.6516
sanitary	-12.6532
abul	-12.6595
solv	-12.6621
▁fertil	-12.6623
▁ambiguit	-12.6628
lider	-12.6757
prince	-12.6759
cultural	-12.6759
develop	-12.676
million	-12.676
natural	-12.676
motivat	-12.6787
▁advoca	-12.6832
▁spectro	-12.684
aggregat	-12.684
▁1949	-12.684
▁1983	-12.684
▁avenue	-12.684
▁biomaterial	-12.684
▁brainstorm	-12.684
▁bumblebee	-12.684
▁clitoris	-12.684
▁communal	-12.684
▁darfur	-12.684
▁existential	-12.684
▁flexibilit	-12.684
▁frugal	-12.684
▁gapminder	-12.684
▁georgia	-12.684
▁lexicograph	-12.684
▁malaysia	-12.684
▁meerkat	-12.684
▁mobiliz	-12.684
▁modifie	-12.684
▁nickname	-12.684
▁pixel	-12.684
▁precipi	-12.684
▁provoke	-12.684
▁reconcili	-12.684
▁scroll	-12.684
▁senegal	-12.684
▁sinclair	-12.684
▁steep	-12.684
▁worship	-12.684
compatib	-12.684
plasma	-12.684
▁incarcerat	-12.684
▁interval	-12.684
▁landfill	-12.684
▁prostitut	-12.684
▁speculati	-12.684
▁kentuck	-12.684
▁recurr	-12.684
▁austria	-12.684
▁convincing	-12.6841
▁hostile	-12.6841
▁instinctive	-12.6841
▁malawi	-12.6841
▁acute	-12.6841
▁urgent	-12.6841
▁propell	-12.6841
▁nasty	-12.6841
▁emphasize	-12.6841
▁advise	-12.6841
▁0.1	-12.6842
▁1,3	-12.6844
balone	-12.6852
▁mytholog	-12.687
▁clevela	-12.6877
▁methodolog	-12.6937
▁blackberr	-12.7002
▁pursu	-12.7021
▁sensibl	-12.7235
nutrition	-12.7235
credit	-12.7235
together	-12.7236
strip	-12.7239
▁acknowledg	-12.7243
▁calcul	-12.7252
▁chồn	-12.7313
prejudice	-12.7317
▁adrenalin	-12.7317
▁anecdote	-12.7317
▁anniversar	-12.7317
▁biotechnolog	-12.7317
▁convenient	-12.7317
▁cymatic	-12.7317
▁elaborate	-12.7317
▁enceladus	-12.7317
▁equator	-12.7317
▁gluten	-12.7317
▁hypothetical	-12.7317
▁injustice	-12.7317
▁juvenile	-12.7317
ă	-13.217
ầ	-13.484
ẳ	-13.4974
ỹ	-13.7803
ẩ	-14.4951
ẫ	-14.4952
:	-14.4953
ặ	-14.4954
ằ	-14.4955
ắ	-14.4956
?	-14.4957
ứ	-14.4958
â	-14.4959
ấ	-14.496
ộ	-14.4961
